/**
  ******************************************************************************
  * @file    network_data_params.c
  * @author  AST Embedded Analytics Research Platform
  * @date    2025-12-27T20:59:25+0900
  * @brief   AI Tool Automatic Code Generator for Embedded NN computing
  ******************************************************************************
  * Copyright (c) 2025 STMicroelectronics.
  * All rights reserved.
  *
  * This software is licensed under terms that can be found in the LICENSE file
  * in the root directory of this software component.
  * If no LICENSE file comes with this software, it is provided AS-IS.
  ******************************************************************************
  */

#include "network_data_params.h"


/**  Activations Section  ****************************************************/
ai_handle g_network_activations_table[1 + 2] = {
  AI_HANDLE_PTR(AI_MAGIC_MARKER),
  AI_HANDLE_PTR(NULL),
  AI_HANDLE_PTR(AI_MAGIC_MARKER),
};




/**  Weights Section  ********************************************************/
AI_ALIGNED(32)
const ai_u64 s_network_weights_array_u64[54237] = {
  0xbf2f81f3fa059211U, 0xd4615addf67f1f1cU, 0x1c1893457f5bcb39U, 0x81b8c4abc40168e3U,
  0x36c3d36779ef65d6U, 0x978f8a63bd8109ebU, 0xc927d7f073d9afcU, 0x95c01185110c816bU,
  0x49187f10e4ed90aaU, 0x4d8114a0cd5fc1e0U, 0x153427201d81ee9cU, 0xf61f3ef05815a032U,
  0x5e40b8109ce81c4U, 0xdd28c84e3ce15715U, 0xf97f5ed4f3de8193U, 0x9e08cf1444250951U,
  0xd95ac5d81140419U, 0xa604b6d63181f34fU, 0xffffd7f6ffffcb3cU, 0xfffff4f5ffffb9a6U,
  0xffffef5cfffff6ebU, 0xfffff19fffffedc9U, 0xffff8056fffff519U, 0xffffb53afffffb35U,
  0xffffcc26fffffa75U, 0xffffbc5affffd631U, 0x66aed7112a959edbU, 0xe3f5b3ddc10ae8ebU,
  0xd0d0b61ff6aec1b7U, 0xe8feb709eb30abdeU, 0xdb0a2e4c15ecc100U, 0xc00be0d5eaebf3f7U,
  0x55c03cf367d2f32bU, 0x73ef223fa123902U, 0x3fb737304a03fbd3U, 0xe208fefbe904d6d3U,
  0x48075b5a34ed281dU, 0xe718f1ddf4cc0d43U, 0x3113111f30104102U, 0x384b573c44365ee3U,
  0x39f839f100faef2eU, 0x204efd0821343b01U, 0x3518fa7fce421729U, 0x4c193a230f2fee41U,
  0x37c148e51fc92915U, 0xdaff37fe33f732abU, 0x661d572a41d4b0f6U, 0xefd8cfb640b7ddc1U,
  0x2ccd7b07341ae8d4U, 0xe8df22f5edaecfe4U, 0xf526f019e71be7f9U, 0x2ac40fe03cf6d7fdU,
  0xfadf44133919c1fdU, 0x17b8f38100c301f1U, 0xcc8ecb90216e0c4U, 0x27e935d139a540e1U,
  0x36d132de390d9b18U, 0xd415d11519cbcdedU, 0x6072dfc2cd4b62cU, 0x1ebfd18414fa06f9U,
  0xf2c334c4f222cfd4U, 0xee801c142f4f4b9U, 0x552d5e2063ff1624U, 0xe7ed2ecf44dde6f4U,
  0x2e1935f2e21dd446U, 0x17313cbe27811521U, 0xd0dedae9e2d71419U, 0xd5c812dfffa6f3e9U,
  0xffe2dec4e94649f4U, 0x1ee5d9cb04d1f624U, 0xf831bb32ce4ae62eU, 0x24143a000a262aeeU,
  0xe00af7a01e04f9feU, 0xe60a1ded1b973db1U, 0xe8dadfe0c90305a6U, 0xd0021fb1f2c6cc69U,
  0x96231e67defcd00eU, 0x21d91037ce3ae23cU, 0xe0091037dfdce001U, 0x27f3f9d220f834c3U,
  0x1cf512cb1542fd1eU, 0x4d113b1030811cc0U, 0xdbece4e0cd40185eU, 0x455a3d09f5164bc3U,
  0x1603e71c2a37d916U, 0x2208ed3f35e9fcfbU, 0xd9ffb5c2db054116U, 0x3ab8f3e642031b13U,
  0xe0ebab4fd7112a36U, 0x1f4c2f2edee738bfU, 0xc1f1fedff9e916deU, 0x32fdebe9e1221edbU,
  0x8f1bf9d1c507e6d8U, 0x1e0d1c0ad829222aU, 0x95efc4f7c8f22a20U, 0xe9e7340bf61c0df5U,
  0xa0f5bae9dbf0e504U, 0xf9c720f6024221caU, 0x2b14eed631d9fdf7U, 0x4f2f8eae1f90343U,
  0xf32ef201d9f42a0cU, 0x3bb402e71b3e1a18U, 0x41edfb0ff6f6f722U, 0x2bf90d02231b2ecdU,
  0x240f2ddcf5bad60fU, 0xe1200c17d8f7fff3U, 0x4427b3b0f6172cf5U, 0x7dfe614dc1df82fU,
  0xc12b434eb09f1f2U, 0x301620010a491006U, 0x1ae8f406e7e70a1aU, 0xf21d19f41d05f8c7U,
  0x44b80281eaa3a4e4U, 0xcbedc41fd0b5da08U, 0x9d6f2e51fe01dc4U, 0x2a1edfdcef58ac48U,
  0x2d102da35704012eU, 0xbb06fab0ebc70dfcU, 0x2c2dbad500e52602U, 0x9c2bbc9ed1fc6caU,
  0xeaae81a8dae9bc11U, 0x5e71cebf50b27d7U, 0x18dc8ae5a232dd1eU, 0x29112cd901d1f513U,
  0xf227dd1cd0efbaacU, 0xf609ddbed8fbaed3U, 0xc699dc04f8e8d8baU, 0xe8f8f2e0d40bb9d3U,
  0xf54d0e4612f709dfU, 0xde1f08f1ba2d21d0U, 0x2cf24255f0adb8feU, 0xaab7fdcca31aa412U,
  0xffc0522f05d1d3b8U, 0xd41115a6290ce8bfU, 0xf5c2bebdd9cfd11aU, 0x4d4d2ceca431f81dU,
  0x6389cbcd3f9ddbbaU, 0x104004d3adfed8afU, 0x2e77933ede40107U, 0xd0fafe1409d50f14U,
  0xc50eec3f01efd3cbU, 0xf5e204258148c158U, 0x3ab466231ea7e5dcU, 0xb2bd711ed1dca1bU,
  0xd0563d1904234036U, 0xfa60222401683439U, 0xee8beea82bcef0b6U, 0xe4c7ca17b5dddcecU,
  0x32d2565a310209b9U, 0x16ac41ef7dfc608U, 0xebfdcd09cc002ed9U, 0xc273032fa3e4b02U,
  0xfd348fc50f23e710U, 0xfbc1d7d322cfde0fU, 0x23c717711a2af3bfU, 0xd1ccdebbd13b00f1U,
  0x3c13fc424c04c501U, 0xed052c2c436905d5U, 0xb5b70ed6a1abdfU, 0xe59bbac19dcac8d0U,
  0x3f11fc6222f4d5eaU, 0xc759b541fd24a662U, 0x1903023e313215d3U, 0xf25bd8dec22c4c36U,
  0xd81fb1aeff8fbacU, 0xc6e9ceaeff03a2b2U, 0xce72e22ce15b6d4U, 0xbe28093ff7252b49U,
  0xd0d98c3fa1e0a10aU, 0x126f11cc46c1723U, 0x7f0e3afb39eacd22U, 0xcf02d2f5fcd0070aU,
  0x2f3f48ed07f5d331U, 0x152ddcd217cbe525U, 0x61fc1ad72fefe8fcU, 0xd90012ef1c990de0U,
  0x260e2c39e23a2bfcU, 0x1ffef21f15df1cb8U, 0xea1d1c2b1716dc04U, 0xef090ec7e4d2edf7U,
  0xed27f8aeffff2efaU, 0xef1c19ea13e82ad7U, 0x3fff0333c413d0fU, 0x2ad63e151d161a12U,
  0xd11501f1f7043423U, 0x30eefdd236e70c33U, 0xbecf4fa2803311eU, 0x36223904ff1b2cc3U,
  0xfee8ead2e4f9d9f3U, 0xcb27d411c606cbbaU, 0xc5c1d223fcd1b2e0U, 0xf3f0c304d138b904U,
  0xc3a101716e2d5c8U, 0xc4d0b2f2d913fc13U, 0x3eb52e1a2201ef1cU, 0xd2cf41bdbe9efedU,
  0x6ffc7f2148020119U, 0xe72fd309e3ed22ebU, 0x2b247e39512bf4f8U, 0x133c12040ce60c31U,
  0x3e053ffd64295051U, 0xfb1f30383f084112U, 0x6821575756040ae5U, 0xfd29fc2e2ef844f4U,
  0x532f45425a0c2639U, 0x2838443536401f36U, 0x56c61f4f3ea1a408U, 0xbda8c1c105eee9f8U,
  0x7f37f5b9e81b1ed2U, 0xc808b8e9f9efe942U, 0x450d13f62ee410e6U, 0x2f09f9befac822d3U,
  0x4b3e42335f13aaebU, 0xf6fca2add606ecf2U, 0xe10619d4e6d7b008U, 0xbfb4b2c0cc090cb6U,
  0xd9e1dbb3a4a918e9U, 0xc409cd11e9bdd54fU, 0x49213330d1e3f5f3U, 0x1d23f309f67be613U,
  0xa2d4f30cde1ed0baU, 0xe5dafa38dd77dcf0U, 0xaef4fc1bd7af18c2U, 0x22109bc99f411a20U,
  0x45d9761150e0000cU, 0x21f0ad1d71cdfc8U, 0x7fea21d81cb6f4d1U, 0xf02ff413e4fb22f5U,
  0x2add2dda2eeaeef7U, 0xd9ffc1e3c09cf8e8U, 0x18021f012b2d0af4U, 0x2dd1fc7120114c4U,
  0xff1b19c2dfef0310U, 0x311f3904d60333edU, 0x17f208f5ede60a04U, 0xdf10edfacf012200U,
  0xdb2e25ced53239e7U, 0x11b610bc2c100b10U, 0xe1f4cd2cd5220c3eU, 0x2514f8ffee302611U,
  0xeaf0e63517d11813U, 0x2dfb2f045fedbeU, 0xde10afdfe3372dddU, 0x150c02f22a26f924U,
  0xdd3df046cf143a0cU, 0x35f239faf37f351fU, 0xbd11bd64c21c14feU, 0x19f225271b5b0f1eU,
  0xf6dad9bbebe70700U, 0xfc19ea240f20ee14U, 0x1a12f245e2180fc7U, 0xbf8fe14d270eb29U,
  0xdf24a344eb15fdd4U, 0x1ceb1327014ae913U, 0xefc5c1d407fb04eaU, 0xf54ef340e050e3d1U,
  0xf4eeba37e7a9bed5U, 0xcffde12ec906ce22U, 0xe30acfebbdc8e1aeU, 0xdce6bbe5e527d05fU,
  0xbe21a230cca07c4U, 0xfb3b011cfaffecc4U, 0x48af170027ca81b5U, 0xa6e2aed3f210eedcU,
  0xeacae4ec20bfcd01U, 0xa20c92eef0c6a1e1U, 0x45f36b442bfb0a10U, 0xa3114dd1ce14ae7U,
  0x72d365265fcd13e0U, 0x1bca29c207e41ae6U, 0x731d40e202badbf1U, 0xeb57f2e730c344b2U,
  0x2afd0b0f226c2058U, 0x33db10eb52ce2f27U, 0xe4471cb6af1b6ce4U, 0x4bbd2fbe070f2b0bU,
  0xeacced1ac7fa5537U, 0x24673c68c46235bfU, 0xfd0627d44415d625U, 0xfe1bb90344100e31U,
  0xfb2bedecd7084a0aU, 0x2a0e49ec2f0b3cf6U, 0x14c6e8e4efec13ecU, 0xed003c0105131fbcU,
  0xf5f20826f5f920c2U, 0x22041c1024492c2fU, 0xc606c942bebde60eU, 0xdd39b964bb68e21cU,
  0xedd68d27110f0312U, 0xd8d90623aa76f8d9U, 0xe10ae8f915d41003U, 0xe028c13af3dc0fa8U,
  0xafc4d50ac0ad8119U, 0xb5fd972bd0d9aef4U, 0x1b1603b0f9fb05d0U, 0xb0c3adaeebfebe4dU,
  0xdd2acb07d21e0642U, 0x4254629f6370ffeU, 0xdaf1c018bbfbed02U, 0x2212f51c190ded12U,
  0x4b70c19ffe3dbdaU, 0x1704f6ecd2f6e513U, 0xdaddfc3be13f1028U, 0xa4446f0224d3712U,
  0xfcc80d62171ad30cU, 0x17fbdf0cf918d3deU, 0x11fef647e309b2a7U, 0xeac4a7d3f5e5f01dU,
  0x96e98d1898e21bfeU, 0xe6253e3cf93b3411U, 0xe7988a3abab7f0d1U, 0xb3e6c621f0fcb224U,
  0xdcd9a4cdbfbeb39aU, 0x1adc9ac8e81b221U, 0xd8f4befff73430faU, 0x311b432b22112b1aU,
  0xfaeffc4db915ef05U, 0xe82d2607073805f9U, 0x39ff2d3124dbcbd7U, 0xff072707e72ed0faU,
  0xc320c42ae1082500U, 0xf81d18081c341823U, 0xcf11fc7fc5cee424U, 0xf92e1d10cf1add19U,
  0xd9d2df36e0fee0e9U, 0xdbc8f528d40ec517U, 0xf0e21e472aea0ae9U, 0x1b26ee3de35f01ecU,
  0xc411e45015b8d1d8U, 0xc5e4ed1eae3dfaf2U, 0xedcff20c07c1a9caU, 0xc5b4c9e8c10bb4f1U,
  0xf0d9e9e607c8ddb5U, 0xf1f5c2d0b3170633U, 0x30dcc43ae9e613cfU, 0x18ee17c8d40bb6b7U,
  0x31a30634afc370fU, 0x2cd02c101ed425efU, 0xf302baaef3cfc5feU, 0xc5e29913b50fdce3U,
  0x59c6f10d77c12100U, 0xd22316f4fd60be19U, 0xf418074f17eefee2U, 0xecde36a82e22fe2fU,
  0x7c9fec4479fd3e9U, 0xd40399bcebe6d6e6U, 0x411217127fd22503U, 0xb908b0dd2d94d5feU,
  0x57fdd89fe7301519U, 0xd3dc3cae1226ebd3U, 0x30e416d033d930c4U, 0xd916e08a90be2118U,
  0xafa95be2ebfaf12U, 0x155227c6b2ddbbccU, 0xa2e8f9a5a2f6bdcbU, 0xbec2b3cfd01aebd2U,
  0x11a4e1c50c3b53d3U, 0xd4dc2ac3cc1c31cbU, 0x1ae3b1240081e137U, 0x56b53a215590d18U,
  0xfceddde0eff8c9e2U, 0xb5ca9dc1fb1f848aU, 0x24023c12f4606cf3U, 0x450d5ccb0b05e237U,
  0x4907e912f6e4aaffU, 0xd7203abbf2341ad2U, 0x3ae83a07419bcbf4U, 0xbee2c6dfee9200a8U,
  0x4fd800284cd30d0cU, 0xd20420d02af5e951U, 0x3119f1caf5fbc1f0U, 0xb8e2022625f734d6U,
  0xcd5e23b91bdff43bU, 0xb9daa7262395b50bU, 0xf414faceaffbbff2U, 0x24d30c0d0333ce66U,
  0x8702dbdda5cc3d37U, 0xdaf8371f15f3bb27U, 0xe9d1cd1dd228d513U, 0x1ef19dd2f972eb3U,
  0x953ffd173c13fc32U, 0x20e1b4e9ab18ea5dU, 0x9249b967ede30ceaU, 0x452bbc4cf203fad7U,
  0x93f1bbea812acaeaU, 0xd8c01c404f2d49dU, 0x1d14451b25232729U, 0x1815d9df4ac60fecU,
  0xd30ab7f2220527e5U, 0xff153305e28130c7U, 0xfe989edcc7151e1eU, 0xef0fd4260cf0f493U,
  0xc425dff1e04c3e05U, 0x2ba3f185d2ebf240U, 0xa107da29c33430f8U, 0xf4203cdb0b2c3915U,
  0xe0d0ded3ca0de0fcU, 0x393c022704121f8dU, 0xd057d4b1edff0bf2U, 0x20c70ba60726be1bU,
  0xb8d299f9bce0e1f3U, 0x8e6fe1f1b22149fU, 0xba97cb62ddaae600U, 0xcb4bcce9c741c4e2U,
  0x7fd54af851cb9025U, 0x591d08ed3c6deb4U, 0xee659ab2eec11bfU, 0xdf0a19dbb5caa6ecU,
  0xfef34dac21d1a204U, 0xef242a0cf419e6a1U, 0xfe1bec313a0b33b6U, 0x28c8e4bec0d491f2U,
  0xcea5416bc164f07U, 0x2519b71e1da41fbeU, 0xd4aee6f6c6a51813U, 0x30e50cfd9e46ceb1U,
  0xb0ea55afdfefe802U, 0xc7c0a40318c2fd24U, 0xb7c1ae20a3c14501U, 0x6295259be03aecb0U,
  0xc7d51032ce16b6f9U, 0x130f4152f22525e3U, 0xf6c9d0dc1efb0fd6U, 0xede3fd1cfc58f4bfU,
  0x26b51d16efd3bbe6U, 0xfb23e3feac5cc4afU, 0x19d1504723fbfdeaU, 0xd3f5bbf5faefd61aU,
  0x4df215ba06c6eae6U, 0xf7dbcf2203eefdb3U, 0x35ca4e5227e2d703U, 0xe4fec10bf7271cecU,
  0x19152163fc112cd4U, 0xf52719f32acc0102U, 0xbfa7d1c2ff1331e2U, 0x31eaede7f1ea2ed3U,
  0xf833287fff332b04U, 0x24220101f9662120U, 0xc63f384afd0c0d11U, 0x50efd0a2a1b1c03U,
  0xdc35a06ddd184a0cU, 0x63f484c196b2727U, 0xe656df3fd92e4524U, 0x151512231b57172fU,
  0xf84adc7fc4234efeU, 0x25493d3a2e63132bU, 0xd8c2c56cfde51323U, 0x233e175209780221U,
  0xda1bd00dd829dae8U, 0xe33de04ff42114fU, 0xfa030e721814e1fbU, 0x9f51114dc2de050U,
  0xfcc2ae2f0aeeb910U, 0xe618db44d513e2d5U, 0xcddaaaf9d9c5a8cbU, 0xf323e01dcb22cae5U,
  0xeb21cc1cb1bafdb4U, 0xd7e29c1fb915d64dU, 0xbee9bcd1aee6161eU, 0xb37b733fb4af5bfU,
  0xe4c80a5631f7b6ddU, 0xe8b3c6f7cec9e1c1U, 0xfde40918df0be3f0U, 0x1adaef2e15d62d33U,
  0xf2d10119fdb31edcU, 0xd121ae38f200c281U, 0x26fd405e2aee12dbU, 0x10d4c7cbfb04d0e9U,
  0x1ddaf9fece2804d2U, 0x3405f61e17fcfce6U, 0x17dde3d433e3d432U, 0xeebfd3cec73b0bf0U,
  0x4e3113111028d6U, 0x35aa1ae4ce301d36U, 0xd107dcf7d12c273eU, 0x1bed25e0cf0037aaU,
  0x10f0181c3001f4ebU, 0xdf0af1b807df1ba7U, 0x7ac55ffe26bbb0feU, 0xc94bfce706d617edU,
  0x33261e202ad116ddU, 0xbdf0d9fe1f811122U, 0xdc121e1af23241caU, 0x9c31fbb03cd18a4U,
  0xe6ee0f1333172410U, 0xf2f414dd24e2f1c1U, 0xdc1537dffe221120U, 0x21f2a0ef1bf0ce7U,
  0xe01f1a1f24231ee2U, 0x24cd1eb912ddda19U, 0x133805480550235aU, 0x1bec40e809f5fbcbU,
  0x2f282ffd0a16fa3aU, 0x31033e091c0439d5U, 0xfae416bacf3420c6U, 0xf1f415251ccd0b37U,
  0xc006bff205f414e2U, 0x42f80abf2500eb16U, 0x17d8d312d0ca181fU, 0xd6e407f1c1380ba7U,
  0x9eebebd3e5f0fe0bU, 0xebfe8c8f62f1634U, 0xfc2cc5010beab836U, 0xe1febd0010e20c2aU,
  0x96ebf23eed10e1e9U, 0xf4f4cd1de01fe4f1U, 0xe7f7f3daf4f1fdd9U, 0xfdc80a1bc205de27U,
  0xabf88f71e2b6d0e8U, 0xfc31f11aae66bad8U, 0x81c8d354abdbc2cbU, 0xcacfd9e3e4d7aceaU,
  0x7fac2904d6ad15feU, 0x9f1cbf43c8fdd6efU, 0x17b826e30cd0ccdbU, 0xb832edccc09ce2ceU,
  0xf1b1e4d31ae3a7c5U, 0xcafc9fd0b2e597cfU, 0x7dd673da4139edf0U, 0xda442322441b1f1bU,
  0x40bc61b04107ce37U, 0xd315fccaf5aa1dafU, 0x56aa40ec0dc0f821U, 0xce3ce0c614c1e7e3U,
  0xfff4f7f9d80172e9U, 0x181c632111173813U, 0xe92738e0d2262f24U, 0x381553f8de0e1f00U,
  0xddd0df1728080e12U, 0x1d103351f827f4dfU, 0xe99dea03c514c322U, 0x2fb423aabc63e95U,
  0xd9dddfccff81a51dU, 0xbc21d6dee0dde89fU, 0xda2011f54ddb2798U, 0xedeb50af6fcd1e9U,
  0xb2c2e7bec0e7c01cU, 0x550ccad1a453d3beU, 0xffbd032130bb9de9U, 0xbff2d9e519c1b1c6U,
  0xf642fdfa10b32015U, 0xf6042a18a0d0f9feU, 0xaaaf9e4b11b0ffcU, 0x12efce479b3efde1U,
  0x9e55632f0306cfb2U, 0xdfa6d8d6d81cf913U, 0x123fdc10ea1f300dU, 0x11c0fbde0ed624a5U,
  0xe1102032d33af530U, 0x203b301850313e1cU, 0xdd07ef53e33df5f0U, 0xd10b01c8d91ff219U,
  0xda1d8121ed14f9e2U, 0xbde37ecb95b0ef5U, 0x7d9cc53af20e20bU, 0x1b3006de317715eeU,
  0x8bd3c736e51f0ae1U, 0x6c7d9d911ff1d0fU, 0xc288c7dff594c3c5U, 0x21c5e9dcc146e5c8U,
  0xa1ddb373dabbc538U, 0xdfc282e1d5ffa16U, 0x9dccfe58e8edf89fU, 0xe9a9f70faac3a7f7U,
  0xa38b190622a5a8d9U, 0xe0c9abdbd3b6ba10U, 0xfbd000f2f5b2e9c4U, 0xcffcc91dfa16efbaU,
  0x11d2002e209fc9bcU, 0xdef6d1e5f23ec6c7U, 0x4c0854600edcfa02U, 0xf619baded904fa24U,
  0x7fbd55072d0b1beeU, 0xf41fe93b21cfe4b8U, 0x77da32542fce180cU, 0xedffd2fff4b007d6U,
  0x430e644731131ed7U, 0xea0714e4010c0d09U, 0x24fce8d900390c1eU, 0xfa384304070f0c05U,
  0xf2360a28f3061c0eU, 0x1734280a202efa34U, 0xeb40255515372616U, 0x15f949f016042210U,
  0xb22aa0a1ab162ef2U, 0x4cf7d0f12add2c20U, 0x9c4c9f1dc900d422U, 0xf71e41f8c35f3f5dU,
  0xff052e4bd7301f11U, 0x2610fa5e3802c7e1U, 0xde31f3f2ffdde8c2U, 0x36c0ff31295d2826U,
  0xfc0ab53ccca1de2bU, 0x1deadb42f372ecdeU, 0xc74a293b22bd0df6U, 0x2404a903091edb2cU,
  0xc90999f49ad5f5d4U, 0xd308e03bb23af44eU, 0xd0c1896fecb886cdU, 0xc01c2368121a508U,
  0x10dba61b488cfd5U, 0xa4c48cfff3e3f032U, 0xffffba74fffffab7U, 0xffffd588ffffe83fU,
  0xffffc23effffe116U, 0xffffb0a4ffffb05bU, 0xfffff3c9fffff098U, 0xfffff862ffff97daU,
  0xfffff042fffff846U, 0xffffef9effffc434U, 0xffffdb04fffff50cU, 0xffffb60000000970U,
  0xffffb6a5ffffbdc6U, 0xfffff7a2ffffe65cU, 0xffffe099ffff9bb6U, 0xfffff9a8ffffc40fU,
  0xffffeed4ffff99edU, 0xffffc833fffff0cbU, 0xd3e40633e5cfbb34U, 0x171931b8f90328c8U,
  0xc4fbe8fad5fcc6edU, 0xe812e60e04f3aaf7U, 0xadaf0ae5adb3a7ccU, 0xf0e2c1d6e00cd9b8U,
  0xd3c1d7cd98d0abd9U, 0xe1dfe8cdd5dcb8f3U, 0x2bec24f1b6ebf93bU, 0x20dc07c8ea07f5f3U,
  0xab14caadebf330bdU, 0xed01e72602df16eeU, 0xfd354a312025f12aU, 0x15fd7fcc38da6221U,
  0xa3423d09fc5123deU, 0xe9540aef46f1242aU, 0xd8ed2a07d7bcea37U, 0xf4d314ae2cfc0df9U,
  0xe012e2dfcd36e1b5U, 0xe22309042fbec5c5U, 0x83ce6f4efedf6ffU, 0x16f4de00d9fa2eefU,
  0xcc05ed0dfbf633fdU, 0xcd024c03e3d9c3f9U, 0xf80738164c6117dbU, 0x1538dafe11159332U,
  0xfffd3f3a0628de16U, 0x22cae809373b3f2fU, 0xf521ff2a1309faedU, 0xf25c5ece6f4e10bU,
  0x10cf2ed0d21f509U, 0xce052c1820e0f2d7U, 0x1be8f4f50fef0c22U, 0x17c50ca20fdecaf1U,
  0xdc0610fd29ffffafU, 0xbb0101d02fd41fdbU, 0xdbcefe0bfec2c945U, 0x1201f3acbcd60107U,
  0xe1f112d3e9b6b0fdU, 0xaffee4c52104feecU, 0x1ecda51ecb02fe26U, 0x16c0eacebefb02f2U,
  0xececef0ed6cbfdd2U, 0xad14e814fa04bb13U, 0xd3cb0206d2c008dbU, 0xf3f1fdbd1f0b24c8U,
  0xfbdad1cfe6e9d8ecU, 0xdce0dd130afde0e6U, 0xfffdf42d2226e92bU, 0x13e622ebf2e732ddU,
  0xf3151ff0d8fcf612U, 0xdb2d09d108fefef0U, 0xe62a05ff1b11e91dU, 0x2ef1f5eef127c2e5U,
  0x11c4001f0bf6ff19U, 0xd0070ddafd04b7f0U, 0xdd01c11000d9efdfU, 0xbee7fe13d9f2dcfbU,
  0xbbe60a01f8fa21e5U, 0xe9f1eb0ad1f6d301U, 0x1b5fe1d0effbbf5U, 0x28dce53fc3f9c5beU,
  0x3ad92a04d7e1cb2aU, 0x5d61df3e308afbbU, 0x17f80c05e4eec592U, 0x1ae8c10081deb0b3U,
  0x68cd07c0ceba1c1eU, 0xce9d36e4d714b413U, 0x15c2aa07e0fd179aU, 0xe5e5f2e9afe88dbbU,
  0xc4ede0c805b3d6acU, 0xe286c204e5e0c4d1U, 0xc7cd14cebfca005eU, 0x17dd3df30bf42fd8U,
  0xc0fe6b108f0dd15U, 0x1533120144bce107U, 0x94cdffe481b6a845U, 0xeb1309a7e5d32cbcU,
  0xad1ecac3e3e2a6c6U, 0xa83ceab131c7b7d0U, 0xc10ee8ebbaa2d838U, 0xd5d2fecbc50f1ed1U,
  0xa2ffc5bcf41d129eU, 0xd81cc0d4f5d7c3ddU, 0xf301dbc30afc0d22U, 0x1fd29f621f31123U,
  0xb32515fe20f8d6f7U, 0xed45bc062ee2f616U, 0xd00703f0d5e4cd16U, 0x41e639c6ff0f0904U,
  0x130a040000fcf9efU, 0xff26221610ffe411U, 0xe4fce208d4051229U, 0xcaf53bf70fde43d8U,
  0xec3d2de7f00c05eeU, 0xba4dff121edf1e1fU, 0x1c8f820fc0f22cdU, 0xe437e86900e7f2fbU,
  0x33c71b1119f3ec11U, 0x13d6c5e3de2e2debU, 0xc5061bee00f415edU, 0x310be516daead3dcU,
  0x5c0a28eadadbf201U, 0x28dbf1d1d21c0102U, 0x2042d215240a0fcaU, 0xf4150c52d6d8e40dU,
  0xec380cfedde143c9U, 0xf12af137bfd42b18U, 0x26eb0931fc10eaedU, 0xd8402332bce0f5f3U,
  0x3b1cc2e6de020843U, 0x45fe2bf8ed21e1f1U, 0x171e1204e4d70426U, 0xfa04201f15e717e9U,
  0x3f25c2dadde94411U, 0xdb2a29dff3e701eaU, 0x26eef73f19ec0236U, 0xf5161418faf02721U,
  0xd306fa25f3f3e8e7U, 0xf102dd272ade0a3eU, 0xf4c2d8f9ade7112dU, 0xaad61fd92dd34409U,
  0xeb1ab9c706ece0baU, 0xea2fe4eb1fa61e02U, 0xfefd18e6e4fc1c29U, 0x9e427f6191e0ff3U,
  0xd934da1b1116f9b8U, 0xe73bbcc71af514ffU, 0xf2f314f513e9411dU, 0xff10f321fbe0081dU,
  0xde1e0dfaf2880218U, 0xdc2703f215effa03U, 0xf2ea21ed01f80b12U, 0x91116320d19d9eaU,
  0x1aeff9e4fbca0cffU, 0xf42df9dd1a0febe1U, 0x1cf5ebeb04ff12baU, 0x317d610ea06cce8U,
  0x3bb21fe206202927U, 0x2e8f5e3e00a190eU, 0x908e8f3e5130cb1U, 0xdffc8c22bcfa81e7U,
  0x2dc4e3f5008ffcd8U, 0xce88f5eea1bedde5U, 0x2103206014412ed9U, 0x49ea0ad624abc430U,
  0x27f71913f7461853U, 0xae4141dfc241afbU, 0xefdef5cedad7c6d6U, 0xf0cff4b6dfdbb504U,
  0xd9bd21fb1edeabd3U, 0xdfdc2bd4ccc811c2U, 0xa6b3bbfaecb6b5c5U, 0xc909af14b395d3b1U,
  0x15ccead3cf119dc0U, 0xd5a200add2f2c787U, 0x10729323409dcfaU, 0x3944f5ea20d2cd1eU,
  0x1287042e270ff52fU, 0x43d92312202b02adU, 0xbff40a01fecfc503U, 0xdc1935e604f6ebceU,
  0x15e20ee2f2e9c3dcU, 0xd2e9d8aedcb3ded4U, 0xb5edacd7a2a4c806U, 0xb8bbfbb6c8eb0f9cU,
  0xc21bbee0e3c5a9faU, 0xbcfeebd5e6e19cb4U, 0x92ecbf5402cebe8U, 0x510fff2401e0eddaU,
  0x5709dc250eef1041U, 0x1fd8f818e635dcebU, 0xd1d6cb08ee1aeef4U, 0xd3bc1ee9e8f5e5c5U,
  0x181f4eed907a104U, 0xada2d8b20e9b9aa4U, 0x2f14cfbcfbe3d1d2U, 0xedc3c9dfaad40c9bU,
  0xe6d2f0f216b834f4U, 0xccedc0e7b0a0bbf5U, 0xf91603abc0dfec6eU, 0x8f6459d37144027U,
  0xc64d18fa1e0416bcU, 0xf160f4ed3ede16e0U, 0xeedf11bce1e1d3fU, 0xf8df2cdb6ddd3b0fU,
  0xc2eb18dde42ee89eU, 0xc3391cf326bc24c2U, 0xe6ef0226d4d8c632U, 0xfc00fde512e018e7U,
  0xb201f8fd0ec0f7d8U, 0x92d071121ec061aU, 0x8e0dbf9ec02e2efU, 0x2e28c624ff15dc06U,
  0x100af6e5dfc9ce28U, 0x18da20e7cb2412c8U, 0x12051bfcc5e8c4b4U, 0x81cc049e60ebfc6U,
  0xfa07e9c405f310e4U, 0x38c500f10de5f9c7U, 0x1fd9e93dcedbafc9U, 0x13f5f9ecf3ce95f6U,
  0xfafdefdbd8bdf7caU, 0xd6b8dfc8dad5daf9U, 0x1abac213efd2efe2U, 0xdb3607622aece412U,
  0x1cfaf2fddc15e5f2U, 0xfebb15fdec00ddcaU, 0x12cb083addf6e087U, 0x41bdb74dee1baaaU,
  0x27bfefc6de07ebd6U, 0xa870ffe01f1ade6U, 0x21cbf800d9e8bab7U, 0xc8fe99f1d5ed8da9U,
  0x8cda9edffe3fedaU, 0xe381fdc9c7bda0c4U, 0xaac405e9070104ddU, 0xcdfdb487e610d107U,
  0x81fde2e5fcd3bfb9U, 0xc8d3feece1b6c2U, 0xda0a36df12b8f4fbU, 0x5c611d03ad72ef6U,
  0xb219d5f2e91cfcb4U, 0xace2e6cb0cd6e4b8U, 0xe722f717ced5eb15U, 0xe1c5c9e4d014d6dbU,
  0x9ee406f8080405e3U, 0x1113e1e7dd07121cU, 0xdf2dac24e5ff0043U, 0xa8f313f9cddaedecU,
  0xd21dd20bf812fbc8U, 0xde37eaec17c2061aU, 0xc1e5f8d0c326f306U, 0xfcf8e2f644c81ad7U,
  0x890123ca03d2f3f9U, 0xf6fafefddabaed0cU, 0xd7d6f4c3b8062e24U, 0xff208c3e61e28d3U,
  0xec13d604c4eefcd9U, 0xc209f7e213d4d10cU, 0xe50e02f1fb09e7e6U, 0x96f6e23e14f09811U,
  0x1cbcf0f5ccd911cbU, 0xc7e0e218d4d0bc31U, 0xbb1f06ead1c3d6eaU, 0xfcc9d0321ed5a2d2U,
  0xf0a106011ad31c14U, 0x17f6ee21d1c20a00U, 0xf9d1e409211edeebU, 0x70ee5d21afea318U,
  0xbf100c30ece08d0U, 0xe5e5dcefc4f8d2d2U, 0xf41c380309efe9ccU, 0x7c3d1340f300c0f3U,
  0x68d7c822ebd91851U, 0x37cd7f0dcd3aebd7U, 0xb170ae61522170aU, 0xf50de0200220fc24U,
  0xf201defc0afd0403U, 0x51c09f7ccf71ffbU, 0xeee907ca19310ce7U, 0xc407dcf003150e0cU,
  0xaf0d01060f040cefU, 0xecfafdfee5040f12U, 0xc8d1d3f0ccedb0daU, 0xeadff128e8d9fccbU,
  0x2aedb4c7bfc6e7fdU, 0xdbd80fbcdbd5c1e5U, 0xf0eb001aff15d6f9U, 0xb816e309091409f6U,
  0x1927f0e3df090de8U, 0xedf2e21704fbfc1cU, 0xffd0e0424092117U, 0xe708f71a1b0df111U,
  0xe7f0292af90504ceU, 0x317ecf2ed27271eU, 0xf5cfdccc9bc3b903U, 0xcfb1bacfd4f8dac5U,
  0xd8e9d8a6b8bbedb4U, 0xa4d7f2c5dfb0c8d5U, 0xcf114e9e9f90209U, 0x17f3cffff0f920f0U,
  0x240af3fadad4020fU, 0xf3feffee02cf000eU, 0xffcef1108fdeeecU, 0x8ec070506f8fd26U,
  0x2ede90df7c70beaU, 0x1ae4ebdf1c1413f7U, 0x1616fb361e121714U, 0x1712112f30fc2119U,
  0x37210e150613143eU, 0x372d2203291e1311U, 0xc1d03170b0f11e2U, 0x50009500608ceffU,
  0x4e062f2117f10b35U, 0xfd910f5e80c2a09U, 0xde05e0e300f7d3e7U, 0xf1ffea2afd010df7U,
  0x1aedee1603fea813U, 0x17e40b1c15d908cfU, 0xb050703f8e60fc9U, 0x1016df57e8f3910dU,
  0x38b6ecf90d1bfe2eU, 0xdc27e7f1041af8U, 0x9fcfd14e6f0e1bbU, 0x3404f920d6daa6f6U,
  0x470ff9f7f61c1736U, 0xe7c20b00efdaf6dbU, 0xd806faf02013fee2U, 0x319e21ce8f2f1d9U,
  0x3aeb19f306fdf8e9U, 0x28ce0d0109d5ee08U, 0xeefa12e212ee07b8U, 0x2df90a32e9cfb804U,
  0xfbd604f1f7220738U, 0xf7e21cfa0313e8ddU, 0xf80cd1ecebdd08afU, 0x1bf6e617d1f8d2beU,
  0x1dbfc5bfdccf12f9U, 0xda9e13fbb4c3cad8U, 0xf6f6ba0603e3cbafU, 0xe310bcfcc4ce81f2U,
  0x2bcdf20ecad3ed0dU, 0x119f09fbbdd1cdebU, 0x1e21302d3b4129fcU, 0x5536346e3f1de54cU,
  0x6f0b2b310f1c1348U, 0x441c550129313c14U, 0xf32a0411143907daU, 0x18163038170dcf0dU,
  0x3a1224232b0d222dU, 0x6ca3c33f606301cU, 0xe6e6f40b20effde3U, 0xfddc00fa02efe11dU,
  0xaea10fc1ddb11f2U, 0xe2ed13f9fa112217U, 0x2a14eb0af4ecbcU, 0x4c2a0955edf9e0e4U,
  0x7fed17f0fb08f44fU, 0x3dbf5406f62adddbU, 0x201c051ff613e0c1U, 0xf9feed33ec0addd5U,
  0x590704f9f7f8300bU, 0x6d31b19d6f4e9faU, 0x16eede25f2f7f5edU, 0xfc23de27c413f3fdU,
  0x3fe32116f2e31eecU, 0x8de02e2d1fa0feeU, 0xccee35dddaf803caU, 0x3825141ffbf1ced5U,
  0x4eeee0edf2eadd23U, 0xefdf53ea0805c5d7U, 0xf7d2b72fcacee19aU, 0xd4d6c92bcdebaeb6U,
  0x2dd5dcb6dad9f2f0U, 0xd8b9f8d3bce1aacfU, 0xeaf626e9f1c4c4U, 0xf3f0b93db5f8b9e5U,
  0x17f00edcf3df05d3U, 0xe7c2ffede0dfe4f1U, 0x5dd032707f7049fU, 0xf346d212a90db698U,
  0x4cebf9f6c1b1ff43U, 0x3ec834e5bc0dbcd8U, 0xd4050cc6b7ddabeeU, 0xfe478d14cad10af4U,
  0xd9fe9cdeb9cbe517U, 0xca011e058ac9c3d7U, 0x1e04f0c6f903f212U, 0xfae7d9d1f531142bU,
  0xb73127eaf2ec3037U, 0xca0b1c3ea701f0f7U, 0xf9efe404b7c6a102U, 0x3c2d6cf81bed0ccU,
  0x3bc503e3f2a00ae0U, 0x1abcfbbc02cad2b5U, 0xc2fd30e599aff0faU, 0xed23c606c7f440eaU,
  0xc1aabbaeffc2701U, 0xa749d3dfd5ee15daU, 0x1b2cbdc9fa2ce70cU, 0xbb1affe107fb3d09U,
  0xaa280df0f81a0222U, 0xcafaf12fcd1620f0U, 0xccbf1dfcd9becf1dU, 0xf7d7dcb39bc2fdcfU,
  0xae9c0b4d5deebfeU, 0xcd0735b2d8c4aeb9U, 0xf442edcadeee1338U, 0x5da9401be1d16f1U,
  0xed45c9d805ca36f0U, 0xc6390d2a8fd50af6U, 0xff2bafd37291fd5U, 0xc82ece1000ec0029U,
  0xc1f61f2cddb6c7e6U, 0x1cd7dbe9ee0b231eU, 0xdcf92734241018faU, 0x2200ee18f7d9d91fU,
  0x15ec2d1e0021dcf2U, 0xcd40dee150622ecU, 0xe4fdf6e3160d0ecdU, 0x1205cb35dfbda3f5U,
  0x34ea040ef6efb613U, 0xc81f2f7cff71be7U, 0xbbef17111602bddbU, 0x3308e924a0d0acabU,
  0x48d9fbfbf6b68c34U, 0x20b835dbcf0dc790U, 0xaf1fbfc3a263494U, 0x260bf3280bccbc27U,
  0xcb0fa1f174a0728U, 0x31b701fbe52411f4U, 0xf002f10ff8ed14deU, 0x40f6ef45cddee604U,
  0x2dd7e2e6f1e4bc09U, 0xecd2ad9f7e709b4U, 0xbcf3f643d6b9c3f5U, 0x11c61fbebad0b0U,
  0x28f1e7d8d6e3c32fU, 0x22010fd1ee03b9c5U, 0xe82202ed270c2bb0U, 0x3e13b0231be1c40dU,
  0x31aa021ee5452624U, 0xf7de22f6dd07270eU, 0xca170afddfeec8d7U, 0xd16ef2108ebdad8U,
  0x12ccb601f0c3ec15U, 0xfbcd0ed8e0f5d4f9U, 0xc8e4c630d4c5f4c6U, 0x14fee6fbd2b5b9c6U,
  0x12c9e2cbc3d4dbffU, 0xd4f136b7b7fcdcd0U, 0xf2f31e15b8e0fdb3U, 0xb5f0bff00ee0e2ccU,
  0x163586dbbb10d7ccU, 0xdceab3eb14af81f9U, 0xc4d0f1d08b0806f2U, 0x10bbb4efcc3d98f0U,
  0xc6ec12d5dcead121U, 0x4e00e0daddf9ffeU, 0xeb4fcda3a6afe526U, 0xee33e7939c15e1edU,
  0x8fe8de89aa28e3e7U, 0xc829f840f61a121bU, 0xa9b23117de9cb3b7U, 0xaebabacaefed19b2U,
  0xb9efee85b9e919e0U, 0x98041fb5178682d8U, 0x4826caf3b7c61d2bU, 0xd41bc724f81ac825U,
  0x26289ccf0521f75cU, 0x27d964d9cef1a2eeU, 0x1404b217baf7eabeU, 0x1256f7c51232d3c1U,
  0x2f07b00df2154a08U, 0xb9e8441caaf7eed9U, 0xfec7d71299bcbff0U, 0x1dcb1dc1d59bcdd9U,
  0xeed1c1acafc600beU, 0x940c5494b9d3b6c8U, 0x151890f0ba86dabeU, 0x4052ff59081f1ec6U,
  0x182414beb9ec4821U, 0xf9354fb725c292f7U, 0x3efd265be5b2dad5U, 0x51081364f8d9b208U,
  0x282a2003f9fa1d23U, 0x35156725d334b610U, 0xf8d6f917aaefdd03U, 0xd30f01fbc9d11b02U,
  0xd8d3beb101e6f626U, 0xdef116e9d2d1f00eU, 0x2c3e05c6c7b30617U, 0xca16e4f6dcce3ccaU,
  0xe82dedb6e7d93bd6U, 0xdc06eb39e89cd935U, 0x29e110d6e8f1060aU, 0xf1ded9c92a10d71cU,
  0x527c81203d00db1U, 0x7e408e3f014e5fcU, 0xc63336f5e0cb215eU, 0x1fff50a40bf866f7U,
  0xaf4efa0a225af4ddU, 0xba4ee309640dfc16U, 0x2e1c182ac81a2928U, 0x9f1f2c5dc0c1804U,
  0xad3bf7d8e7fe0a8dU, 0xb454ec1e1cd6091aU, 0xc2bdb9f0fddaedf4U, 0xfb01e8f2c51cdfe7U,
  0xa0b3ee2bebc6bec9U, 0x5cb2700ca31f0f9U, 0xe43af6f7fc163db2U, 0x361af153dcd494e3U,
  0x22d52cd2dfeaea23U, 0x4511adc2aecefU, 0x17e32aea240ff7e4U, 0xd31d159fb01c118U,
  0x7a8df4f122cd05e6U, 0xd9c60616eff01ae5U, 0xcee4b6eb15e8e781U, 0xcde5bb1abbf381b3U,
  0xe8a8f0dd20c4e1e2U, 0xcab915178ff8f6d3U, 0x1eed1a1de0d9c10fU, 0xfbf2fd0c2fff1d00U,
  0x536ee0318fbfecfU, 0xf60208fe421beb15U, 0xd0a21e107061c0eU, 0xe7d60c0c3c1c0127U,
  0xe8210d001106f4d8U, 0xfc16f02135faeaf5U, 0xc7c600fd0df60427U, 0x2c31dc251f51e1bU,
  0xb3f8fafe1d0fbdecU, 0xfa10db07330410ddU, 0x20ec09d3d2f7e5faU, 0xebecf9272214dd02U,
  0x3af9e1fed6d9f5ddU, 0x100212d10323edceU, 0xedce6ebf1fb00b7U, 0x21e0f2192dfbd70bU,
  0x1dd1faeb0d0ff7ebU, 0xfcf30a0be21ed5d2U, 0x10ebfff6daf9f9f6U, 0xf5e000fdf1e7fbe3U,
  0x12f5c5f5fb0be9f7U, 0xe8f504150401ef0eU, 0xfedfe8f8f2f2c7beU, 0xc0bf5fa0eced6bbU,
  0x10d4becbd5cceef2U, 0xcdf12acad0e7d2eaU, 0xdae3d9f2ced1b7U, 0xbe8f70026efb3d0U,
  0x2ac4d5d1e3e7fae5U, 0xf8cdf601e9ebb1b7U, 0x4e3120bdcf8ddb1U, 0x1ceeff2921e681ddU,
  0x17b5b0fddcb8fee2U, 0x6a60fcef7f7e9f8U, 0x15fb0a16b1b70c23U, 0xd1aa13fad6ffe6f4U,
  0xda02d4c4e0bd0daeU, 0xf709f6ec2cc2a9deU, 0xd1a4d7c6d1c8f0d3U, 0x96d9d3b5cbc5a3bdU,
  0xa1f813f2f0e0d8d1U, 0x7bcbbce92d4b1c8U, 0xcaf6efeeb5f1bf5cU, 0x130cfebc09f23db2U,
  0xa91ceeb7f701e545U, 0xda420f1c96c418faU, 0xfeb44e13b8a7ce5dU, 0x4f0444be03e14223U,
  0xe1e6d0e1f80c08bdU, 0xe93220d368e8e1c6U, 0x11e1b4d98ecff8e4U, 0xa0e7ae0bd833f2aeU,
  0xedf2b9eff9abf2beU, 0xf0dac9ef89b3dee6U, 0x72c08f9f3e7e43aU, 0x9cd60d9fb2fb39e1U,
  0xa4402708f4f2122dU, 0xb510e5f6d8ec062aU, 0xbef6370331fbd5fdU, 0x7f3e4d01f6db0408U,
  0x30a2e3e514e2a05aU, 0xede35fea40020b8dU, 0xf9fce5d8b4adf5dbU, 0xb417b3ceb5f6c8d2U,
  0x101eb0c4c4a0fdaaU, 0xdaffb7f49ff7ad1fU, 0x421ba612e2f3f4ddU, 0x950dbfccecf9e62dU,
  0xe1241f38ec980ed0U, 0xf1010b0aa7dd1720U, 0xfecfa6cf0dd524f5U, 0x9b0ecccd16cca211U,
  0x8dfaf3d5128d1da7U, 0xb1f3a61ccf2f082bU, 0xa15f3ab2b3ed125U, 0x2625e88eecf9001bU,
  0xa3b7432a17001d25U, 0x503eef2fcfb1626U, 0xcf3ef07d001bf2cU, 0x3039ebcbdfc31bfbU,
  0xec140c0a38ce1bd1U, 0x408ec11220d0c0aU, 0x4221232eadadfe1U, 0x8113c80fa8bfb0c5U,
  0xe90b1b0118a33183U, 0xe6f4d40dd6ecfa20U, 0xe8daedd9df06f4dfU, 0xf63397eaedd1b2e1U,
  0xd2d9431f2c15fa27U, 0x20d6da1bd41cd0edU, 0x133de705ff20deebU, 0xdd09cf0cdfc604d1U,
  0xb8e7f1c8decc35f3U, 0x10fcf0dccffed3bfU, 0x1290c0bf0f124efU, 0xbf0fef37aaeed6bfU,
  0x1fc30710f8b227b0U, 0xf1e8ccfee31ad520U, 0x1c15eb0d15edd783U, 0x29fcde50ab19c8f5U,
  0x2fb05bd91ddb0429U, 0xcdd100da8732fa01U, 0x30ddd12f12ef197U, 0xc4fcbf22e8cda203U,
  0xd9091afa12fee30bU, 0xbb107d4c326b9ecU, 0xc3b603f8f7e2c70aU, 0xeff25ee6000b03e9U,
  0xe9e2cf0ed60ed80aU, 0xe31534f749d4c8beU, 0xc2c832b5e5b10753U, 0x6c144cae5142ed9U,
  0xf0e8e0cebf2610e2U, 0xa8451809e9cff1bfU, 0x50ff3e9d2f9e41fU, 0xc1e8ceb7f6d72ff4U,
  0xeefcff02d7cfd7c5U, 0xf1ecb9eec0bcc008U, 0xdafa0edfbcc4ecbeU, 0xd1eb10fbd1fbcebdU,
  0xaf18e1b6c7d20ee0U, 0x21fc15f3f8e7f8cdU, 0x71808200701e4caU, 0xf802e1182bdee5e7U,
  0xa104cbd41a37decbU, 0xe0f81b19daeacec2U, 0x241512f315e0da27U, 0xe9082bc5f1bd0cfaU,
  0xf5d71afd17c0d5e9U, 0xc10ed1ada20d4f1U, 0xf2e00ec0f516f8acU, 0xe4dac7e5c40189dbU,
  0x390d0ff1b8031f2cU, 0xdfa2daa8f828d1f5U, 0xf908c21ad61c06b4U, 0xcb25da57e1bb81fdU,
  0x31bcc3ebc92a2cecU, 0xe715d2bc32cee4U, 0xf12a2e1f0c14c0a0U, 0xcfe0affdc905930eU,
  0x12dabc1d1bebdcf0U, 0xdeefe3b7f7efe4b6U, 0xc1f6f1faf5dfe0e6U, 0xebebee00c0f4eae9U,
  0xffa710ed0304e025U, 0xfedef506d913fab4U, 0xdfc9e2c9e6e6cabfU, 0xf9edd80a8efd9dfbU,
  0x3b6fdf5e3d5da0bU, 0xf19fe6dfce03d0fcU, 0xe5dcbbeee600e1adU, 0xd507a8f1b806b6f9U,
  0xe5c203e501e3f5deU, 0xfeb1db068204ffe9U, 0xc0cffc0801ebe1f6U, 0xe0341b3501f52ae1U,
  0x1ed7ff1c0426c70fU, 0x140cfff3250adfebU, 0xe6f7f71e07ffe110U, 0xcb311a28e6f81fcbU,
  0x210d1002dadacd06U, 0xe728edce20d7cfddU, 0xf91c0a01000a2520U, 0xd0070727deeb18ecU,
  0xe6ecffe9f0ef0c08U, 0xe10605ffe9e10417U, 0xb10118df02133f47U, 0xf0035abf53ec7044U,
  0xe93c171c2e05e2e9U, 0xe47e1cec6d1e3908U, 0x135140a00f32e70U, 0xfced47d2230c600fU,
  0xa2680ff5123cfbe0U, 0x77fdf362dd73733U, 0x31b29dd1b140d43U, 0x8f73ba5270e3f48U,
  0xc72bff1fffdf22caU, 0xda51272319f50812U, 0xf5f619d7cd030a54U, 0x100c70c145fc5fe2U,
  0xe3f4c1f1dafad2eaU, 0xc922d91c4dec131bU, 0xdad405fdbdadcb2eU, 0xd3cd248c28de1a0cU,
  0x8af6d4bde72fcc81U, 0xaf17e6d613f3ebcbU, 0xd2d71e00d7e7ec40U, 0x7e927d92be221e9U,
  0xe7d2c9bbc119fec8U, 0xd931fcf94dacbdedU, 0xe115d906f5203cf8U, 0xbedc14ea25e40924U,
  0xe71c0717f0e2d8d9U, 0xd9fcdde2230b0919U, 0x10df737041b1f34U, 0xeb0d4de131ec0f28U,
  0xe39dcfdea20e2d6U, 0xd45515fc34fbeaf6U, 0xf2c9150c2e290f21U, 0xebcc49d132012e28U,
  0xbc0b05f70de8f4ddU, 0xec22e2f3320a1700U, 0x308ee1c142922c6U, 0xb10cc94ac9dba00eU,
  0xbcefc16fbdcfeeaU, 0x35daec16ca2e07b9U, 0xe6021924ef12e1eaU, 0x2f80923f80ab906U,
  0xfbde313f1fb06e8U, 0x23c81c0deb1cf4dbU, 0x1a00f1e5fa29e9f9U, 0xe3dee3ef22eacfe5U,
  0xe6eb180324d015bbU, 0xc4f7e3e710f8e4fbU, 0xf6d1c0fee6f2f9fcU, 0xf238ea1eac01071aU,
  0xdaee14f61cfadcfcU, 0xd6e524efa819d113U, 0xd9ea87e7d7edcb9aU, 0x5b891f9bcf9bc31U,
  0x97aa18df029fdcd3U, 0xbdfab8c1aee5d9c1U, 0xf7e60fc415f219c8U, 0xe0cd2e7d1dbda16U,
  0xde2401d803051414U, 0xeb140306241a18c5U, 0xf5112bf7e2c308e1U, 0x28faadebb6f6f5f9U,
  0xf5d8f31014eed3e2U, 0xe3cb1b0818faba15U, 0xb4e0a4efcdb6cdcfU, 0xa7f5b0079515ab08U,
  0xe60330f0e7ccfd11U, 0xd8bffdd3cb0dffc8U, 0xd0f8cb2206b3e89aU, 0xed21cd31bbd205e2U,
  0xf19f7cb1a06d1f8U, 0xb6da26b3dd28e2e0U, 0xdc3101b401c9e3ddU, 0xa26bcd1dbfde00fU,
  0x181eebdfe8f406daU, 0x7f2d110bf12e8c6U, 0xffefe0d7ebdfbdd7U, 0x3406e051d00dbf11U,
  0x808210cd8dfe917U, 0xeb6e3c7b7f1f0b7U, 0xa8ef12d3d2a7f38aU, 0x10d8bc2881d0c9ebU,
  0x40f4fbe6efda0c26U, 0xa98117fc9fcc9edfU, 0x32208e70323fee7U, 0x3f5ec4627f9c60fU,
  0x3706fc2102f81619U, 0x1de0170412fa0710U, 0x1108fafe2a080dc5U, 0x217eb300311df24U,
  0x47021a2104181d27U, 0xff13126e02b1dfbU, 0xe4f5f2db141a0ac3U, 0x4fae5080d1dda28U,
  0xf5e1ec210e00c522U, 0x1b933fcdb1a03ecU, 0xe806f9c008eed1aeU, 0x2efff846f4fbd2deU,
  0x2ef1fbfbf913da10U, 0x19e2fd3c006e3c4U, 0x14fdf6041312f694U, 0x26f7ee3d1b0cbcebU,
  0x43020613fa1c262cU, 0x2ead29e4041dffe6U, 0xeefafdfc0ef6f6d2U, 0x1614e229d4ffccebU,
  0x46cfea1618d20b00U, 0x22c83003f0050af5U, 0xd8d216c503defcafU, 0x23edf0f1fcf3bffeU,
  0xc0dcd3ee24b903U, 0xe7a633f9daf5d1e1U, 0xe6d1efe9d1d2c6a2U, 0x2efee42811e8b8d8U,
  0x32dbe5efd5e8ee04U, 0xe9992ec3f9e1c7dbU, 0x8e41a21ece0e4c7U, 0x2603f62ac5fca0e8U,
  0x2bb2c5c3dbb7e20bU, 0xe18128c4c6daadf4U, 0xf7fbfffdf1f11048U, 0x40e240929fa2e03U,
  0xdd22100506e6edf0U, 0xe945ec0729e2f420U, 0x22cf1200e318df17U, 0xf0e31de111e51af7U,
  0xf219f91405f5e9e9U, 0xfc1ef5171ce50c06U, 0xe2d1e9f300f7bf09U, 0xf9dc10f6ed19fefeU,
  0xea1afd0d0a07f0e4U, 0xc60714f407d30417U, 0xffe9151609f513efU, 0xa09fc19fff3d80cU,
  0x21dc0c0d05f2ebf3U, 0x12051be5e81410d6U, 0x81402f9eb0a0bdeU, 0xc11eb35fe01fc12U,
  0x3dea0eedf2dffdfeU, 0xfd0d0afcdbff1df6U, 0xf5c503eb1111eff7U, 0x6f8ec210a03dd04U,
  0x3702e20effe5ea1aU, 0xbf124e9f9e5e90aU, 0xe8dcf6f3ecf2fde2U, 0xe3fae73ae107c9ddU,
  0x18c5c8e1dc05ebe8U, 0xf2d80fceefe0e4b5U, 0xeee7e802e2f3fec8U, 0x6ddeb2ee205b1dcU,
  0x25def8f9e9e90a04U, 0xf5b7ef0fb8e1f2f8U, 0xad7dc1be8f4f891U, 0xfe09ae4bd6f081b5U,
  0x19b5e1feedd4f30fU, 0x785f6dbcdfdbbd4U, 0xfce2e2251213e2e9U, 0xf1e0f4b401c1eff3U,
  0x9bd5302502241bb7U, 0xcddda5e021d727b5U, 0xee093ae11b19dc26U, 0x20d813d1f6e8d8d9U,
  0xf994ddc71fc2e023U, 0xd4ef4f00f80df6a7U, 0x8bc3e7f7d1e3dadaU, 0xe6d8dee8edf5a1a5U,
  0x1beab9e2c7d7b0e5U, 0xb5cdf994cdbe9191U, 0xccc1c1d1de22199eU, 0xf192bbb3b5e6a0d5U,
  0x8e8432072700dbe3U, 0xfeaad70dfb0c1e06U, 0xd6251a39f3e6b62bU, 0x50e907f3b2e331a6U,
  0x2b8103c0e6ecff35U, 0xc2cd46fc15f4dcccU, 0xa5ab062de5dca6e1U, 0xd2ea04e0dde508bdU,
  0xc0aabbd3bee695b0U, 0xf2b712c108cfc185U, 0x17b7da012415eab7U, 0xc79faaeed8100309U,
  0xbecb13e2e0eafeceU, 0xd1e4c6eba6b5f3d9U, 0xe8ef1ae5230fee0dU, 0x35cf38d8e30008d8U,
  0xf6e4ddd2e8fcc312U, 0xaf2338e434d6d5abU, 0xb9a72d0ffbe7db12U, 0xe0f5f3e2e7bbffa3U,
  0xe5ade9d4a72fdf0cU, 0xd3ca0da114e0969cU, 0xe7dbe50acdb8a209U, 0x349def71931d9U,
  0xb8fbefb3ddebcaf5U, 0xfc330dce2104fd15U, 0x6ebddc2dbc0dd39U, 0xd31301f0e3f2f7baU,
  0xdff20cf8f2f4e3a1U, 0xf639e00826fdfb20U, 0x1e6f606ece4cfecU, 0xf2f5e003fa2701ddU,
  0xd8ff07cbfad718f1U, 0xfa1de5e7e7fdc1f4U, 0x6d9d7f6da0912d4U, 0xb021f5df14d817f5U,
  0x930bf40f12e2c8d7U, 0xd206a1f8f0d9e8fbU, 0xfb040cfd01db1bd1U, 0xca2d28d714fbfe18U,
  0xf1e41e13e0fd0fe7U, 0xfa32f0cde2ce11c8U, 0x3edf7031cfdd0f7U, 0x1a0c04f31df306f4U,
  0x24010dfbd3f10825U, 0x5170ef708bec6f1U, 0xdbef7f5ffd8dcc3U, 0xe22ce9fad5cfede3U,
  0xdfc700fc11f3bebeU, 0x17e581cccd17ccd0U, 0x1c0105f9e313e6ecU, 0xddeffe35a0f9c9e8U,
  0x33fd1022f6d82a37U, 0x1d0faf3f911e9e0U, 0xfafefce80bddddb8U, 0x16dce813dbe2ba07U,
  0x33bd1cdb05e9e50fU, 0xf5d50e12def5e1eaU, 0xf73103c910fc10d9U, 0xdcd033326daf025U,
  0x1fe9071313ee03dcU, 0xeed6f6373320f7e0U, 0x18340501e81d36d9U, 0xecf6113d1c27e924U,
  0x7f826043211060cU, 0xb09dd0908250413U, 0xff190fef171b12d3U, 0x1c1909f73e1fd930U,
  0x60e302d2b111b0aU, 0xeeeb3835f305251eU, 0x1b04dfc6d6faf1f0U, 0xf1d3f22206f5ea05U,
  0xfc9e6fed622100fU, 0xe6f9f9e02cd3e005U, 0x13ede2edd408dcc6U, 0xdfeb1a0107d9f7U,
  0x36dde6e7e403141aU, 0xeba509e312effaf9U, 0xe6f5f00ffefd21e0U, 0x2d1fbb4ccefeceefU,
  0x2fe402ec00161d1cU, 0xfc4362be313141cU, 0xe5db00dec0eff48cU, 0x2e1f3f401f2d6dcU,
  0xbaeebef40015fce6U, 0xc5b019dce5f3cec7U, 0xf5f80aebb9f7e7d7U, 0x25f4e8f3eaf3cadcU,
  0xf5b2dbd1cd03ed20U, 0xf1a4f1d1e5f4bfc8U, 0x6eb1721c5bce1e0U, 0x220ffb5aaafac6a7U,
  0x47e0cfc2eaca2632U, 0xeebd4be4e7fd81c6U, 0xdf0d0d2ea000031cU, 0x5f0ecfce800f1c8U,
  0xdda616e0082ed3c0U, 0xe70ec8ff0cc6d9c5U, 0xd9f70917a1a7f8e7U, 0xfd19e6a2f9e20810U,
  0x84ffe7d6dad01fa6U, 0xd4070b0b0d10cddbU, 0xea4411f69217db3dU, 0x98ee0ab6420e351fU,
  0x9b470095f42ef0d0U, 0xac26b50bddca2bedU, 0xc80ecff9b7c9ebe2U, 0xd71ceef4dc0f1301U,
  0xe5cfb6f21b08c3eaU, 0xcddac3e905b396c6U, 0x11cf2709d3c411b5U, 0x1bca08b7cfccbec8U,
  0x12ebcabee723dfb7U, 0xadaf22da00f18b99U, 0x1313075dcee40d3fU, 0xb51fdc1805f91620U,
  0xc101f3a0291121bcU, 0xfaf6cb52cdcaf902U, 0xeb37231bf6dfe6c9U, 0xd8ccd5beced387e6U,
  0x1f810ff1c9fbeff3U, 0xc7bec7f22a10bc01U, 0xe4c7522fdce513e1U, 0xeae119fe23d8c2c7U,
  0xe0a0e719023ae8fbU, 0xa8f5d9ec52f4bbfcU, 0x28002d57a6e21117U, 0xd275ad37f129d4f0U,
  0xe0ed2ad9f9ecfebfU, 0xe9e5f900a7fe0439U, 0x1f0b073c351de98dU, 0x2626e952e9f5a1e6U,
  0x7fda47f72a22125bU, 0x339f4402b416eadbU, 0xb2c6f4d9d2d7d6c6U, 0xf82b11e79ed8f1cdU,
  0x47d5fcd5d9f1a82cU, 0xdfc908e8b0efb3b5U, 0xe00cb9deb0f7f62fU, 0xeddef2b00a013cccU,
  0x913012acd612eae9U, 0xab34dbffeadef7e0U, 0xffec0e08dcd3e2ceU, 0x10270e61e8e411c1U,
  0x5a06e9ccf6fb0329U, 0x19e52705f7f0eadeU, 0xefe3e6cda5b0dcf2U, 0xf802ed0fe6eff9cdU,
  0x21e618b6cfd702ecU, 0xc8180bd2d5b4f2ebU, 0x121d0103120f140fU, 0xdcf9fdb5e20f371aU,
  0xb84b01e3f1080ddeU, 0xcb4d0726eaf1232cU, 0xc1f9e2fdbebef500U, 0xdde4e3f4d8c3fbe4U,
  0x2bdebbd9cdfcf2efU, 0xcdec11e4cce695dbU, 0x913e4f49be60f0cU, 0xcefc02fd0ff6fce8U,
  0xc521dbd9e3dc0accU, 0xc017d8dae4d7d502U, 0x3931260b2510f6f6U, 0x2d30dc07150007f5U,
  0x62b2c061a1448e8U, 0x1a1d330fe1f81b30U, 0xfed22313d6bb244cU, 0xd6f24ab134e44002U,
  0x9dfc00cfba12efb8U, 0xdd44cbb1179fecb0U, 0x5c7d4f0b2a801e9U, 0xe008e210f4f008f1U,
  0xc0f4f0e9f117138fU, 0xe2fe9dce1aa9c0b9U, 0x2022eaf7f006f7f3U, 0xcc29fd2c04ebffdcU,
  0xec28e9e2dde305e3U, 0x4ecbd39f6df1ef1U, 0x1cde133c06d9d51eU, 0x36d82681399d0713U,
  0xd4bd23d2d61aeef0U, 0xee21fde941fff7c9U, 0x50f1bfcedc1d219U, 0xf3d4d7d6fde1e9d6U,
  0xf0cddcd1d92cfdbcU, 0xf3e7fbe11fe1d4d7U, 0xf33409f5c2b0dfecU, 0xd116c20eb5f10491U,
  0x1e2dd5bbf5d13bb6U, 0xfe22a4329fd4d627U, 0x29eb391521d4b8d0U, 0x4b4c011525ddc610U,
  0x36bce505d8342006U, 0x1bdb44f1091feca7U, 0xf71d09dc04dcf70cU, 0x2afc02dfd10dead1U,
  0xc6d804e8c41e36e3U, 0xf3e9d3ccd1c90602U, 0x290ebf029cc7120cU, 0xd9d69d46edee12cfU,
  0x112ebbde4cdf4f1U, 0xdcbd923bdf6b5f5U, 0x53ec2c0a8eabc2bU, 0x12dd33e0d6c812e4U,
  0x13400f31501edeeU, 0xc31220d806e9f40cU, 0x1d0c1203bfbced47U, 0xcecb23ce35fb3607U,
  0x8e11f9fddde92f94U, 0xc63beab93cda2419U, 0x1e31d0ab8010bf6U, 0xf7eb3adae11134efU,
  0xcf21fa5c5dcdd89U, 0xe5342f0109d301d3U, 0x2231e430cfd01908U, 0xc73ced090207252eU,
  0x3a0bdeedfe0e24c2U, 0xf35e4f9c3d9e5e5U, 0x11291ced202ae1dcU, 0x32fb24bf0c0ceaf5U,
  0xbee6100e0814f610U, 0x2e033fcff3050b13U, 0x17fc25050f27f21fU, 0x313124d01e111d18U,
  0xf6071ccee39718fdU, 0xb70647ea28fb06cfU, 0x350ce528d3ed17c7U, 0xe47ff066e2f7edf8U,
  0x36c4130cf0d610bfU, 0x43fc0408c81ff415U, 0xd4df18361338fdfaU, 0x1308b649a2bd0ef8U,
  0x40f8152fe4032f0fU, 0x3b1bf0cad81016c5U, 0xff053f1604f507ebU, 0x35f0feafbaeedcfaU,
  0xe0eed708efc529ceU, 0xaead0cc109bfe7c7U, 0x52fd05b3d3e42638U, 0xf1cf50be51f04427U,
  0x9142efcbdfe32fafU, 0xac55eed635bd04e0U, 0xe8d6da1deaf00517U, 0xc8ff14cc0df3fee3U,
  0xdf12c506bcd51aa3U, 0xb201b8d82df7f1ddU, 0xd0cae92fb6fcc020U, 0xe91703d939f5f7efU,
  0xf0efd5c2e4dc01b9U, 0xd305bf0e17f1d9bdU, 0x1ed7f1f505dffce0U, 0x132dce200f3114f7U,
  0xe5c4000614e0fd19U, 0xf5f2f9f7e71bd4e7U, 0xc9d2e3e0cff9f8e8U, 0xf2c5e3e6eafe01d6U,
  0x2dceef115fb03bfU, 0xf8e6f0f3fcd7e9feU, 0xefaa0de2ea16ffe3U, 0xdce1f6c6e2c9eed8U,
  0xcef0ecfe100af2e1U, 0xaa080feeeadcdbcbU, 0x18ed164afde7d6bdU, 0xe7f9c5591416da02U,
  0x35e4f90bfdd82a14U, 0x1db3f1fdeaedd1fbU, 0xcfc0de02efcec3a9U, 0xd0c1b302f8c9b3e5U,
  0xf79b0ace05e01fd8U, 0xd1cfaae4f5e6e9d6U, 0xdb81d8f301dbccafU, 0xdebce605ddc8e0b5U,
  0xd9d7e2ebcfe1c3ebU, 0x10d9fce6f6c5e4daU, 0xc17ae2de2de0929U, 0xd143ff1ebde918e7U,
  0x2df3ed01eec816b9U, 0xe2fbabed08edf402U, 0x39380afe0a190831U, 0xfee516eb14202311U,
  0xda010be9f7da2cd0U, 0xde3ac7de3c081618U, 0xf7d700faf025fe52U, 0xe1e939b5451d5614U,
  0xc449ebdc0b1ebba0U, 0xba2bc70b41d0e9ebU, 0x24340b3aa2ceedf0U, 0xdf4be55fd705f8b9U,
  0x33efcbc9da082ac5U, 0xf832e314d9c2d2ebU, 0x2903fe24011b02faU, 0x101b115e2d1107f8U,
  0x45280ae9ffc747d7U, 0x291823ef1df6ed0bU, 0xfdd3df17e2fcdd01U, 0xc222e71c43efdf01U,
  0xd2dfd9d5f7db1dcbU, 0xf7e9f5e109df1ce5U, 0x210ef3c99ba9d6efU, 0xf3eca451d8eecbedU,
  0x4215d7def3f816caU, 0x1001d5e3b5bcbf06U, 0x3bedfb30f500c2e0U, 0xa2ef935fb21a3cdU,
  0x7fdfc4cffccb46e0U, 0x1abfbefde06ede5U, 0x5d7ed11e71cd0acU, 0xe9ffb85cce24c7e6U,
  0x1ec3f207e1c224ffU, 0xdfabf8f3c006e9edU, 0xfa022d33e7e40b53U, 0xfa0c35e441f42f2cU,
  0xc31fdd07f8f324f2U, 0xcc24ebdb15b90c0dU, 0x7fcea1d101508eaU, 0xd9f2ed150820fc34U,
  0xae018fbf7da01cfU, 0xc2e30416e0eb2834U, 0xcdfcecf5081c2af7U, 0xdcd7ebf3f1f3fef3U,
  0xbfd912fafadeefeeU, 0xd6ccf31ae0200d23U, 0x1b030edadef60fdbU, 0x7e4dcfd2705f706U,
  0xf90af4190f14ff30U, 0xefee14e8e9fafaf6U, 0x9eed714f20ddfacU, 0xfcf4ed37c6ff97f7U,
  0x1de40dfbd7cff3f3U, 0xc11207ece1eccbU, 0x8f0e00cfde311f8U, 0xf5efcf1a000ef2f6U,
  0x9c70e1400fcdcfbU, 0xa021806b514d217U, 0xfc15fef603e8050aU, 0xcdcf904ed00f7c3U,
  0x13300212e6fee5fcU, 0xe02708ebcf11f014U, 0xefbff008ccbdf5d7U, 0xefefe6eac605f3c9U,
  0x17f7d9f8feb4cef0U, 0xd4d209fed5f9e0e5U, 0xf4c91e07e5e5e0aaU, 0xfde3c719b7fd8cbfU,
  0xfcc3dbc8fafacd23U, 0xfd811ccdb6f2a6beU, 0xea7d416ebd2d99fU, 0xfe1ee2e81be7f6c3U,
  0xc8ab14141ba40a23U, 0xf9a9d899acc6dbb3U, 0x2ab08cad9befeb5U, 0x19fcf5bf9dfbbc8dU,
  0xd38deca8ee8ffe00U, 0xe8a9cef6d4e6c3daU, 0xec2f1afac000c91dU, 0xd002bee6f6e4f300U,
  0xcf2610c1caab1beeU, 0xd6da19f4cdc6dce2U, 0x15e21df7b4e719eeU, 0xf5ed30ad1a012a04U,
  0xc10f01c1fdf7ecd6U, 0xd81b01f635bdb507U, 0x2accdf0dc79103eeU, 0xd5a70fe81928e5d2U,
  0xaadbb9c3e718ebc2U, 0xcdd8d1b13c92e6f2U, 0x2ff5ea00c3dac502U, 0xfacff017fafccff8U,
  0xca28cac9e20aecb9U, 0x6da01f5edf4c914U, 0xf7e50df7fce8cd81U, 0x2b258e032d199711U,
  0xe5b7cfdb1d0cd5e6U, 0xb20bf1aab9150ae9U, 0xe6c21a0a00c607e1U, 0xdd072bc721e6e7d8U,
  0x9e10ce2c4e30815U, 0xa8d4d3cb17c809d8U, 0xe8fcf4190dcbc40bU, 0xf70fd5031110e6daU,
  0xbbf4c80bff0924eaU, 0xe8d024edf3c4f5f3U, 0xddd22412e6f1d10fU, 0xb1a260a100c03f1U,
  0xdfdebdddf21d400U, 0xebecf8dd10efdfd9U, 0x11fce006ead7e701U, 0xe20a1611d0ff1aefU,
  0xee301cbd7e20ad6U, 0xf10ceff5e5e0f2daU, 0xe8ef2e13dcdcdf0aU, 0xcd14f812c50517e5U,
  0x180f06f2f6d8fbf1U, 0xe6f30b11f105ff0fU, 0xdf20230cf4212e5eU, 0x10077fe64af84b18U,
  0xcb59f7edf74dd8e8U, 0xe74dfcf555e4040eU, 0x2c1a2614e8f1f75bU, 0x20ea7dcd240d7f25U,
  0xdf6aef0afd0afbcaU, 0xd05f06f86ad31335U, 0xedf70c12e2fff93fU, 0x3fa2ddd27ea350fU,
  0xe42def16fbee0ad3U, 0xfb39eef22eece934U, 0xe6fc2607172c4712U, 0xdf930fb3208e528U,
  0xd60d2b1b16ffe918U, 0x1d0903111127311dU, 0x1f41b052a321ee9U, 0x320219f6101aec24U,
  0x13f01a2c1001191fU, 0xefb370e20301701U, 0xee0c0417252efff6U, 0xfaf3fcd50beadcf6U,
  0xfae32bf50ce006deU, 0xfde3fd0af6f104feU, 0x2d20d99bdec3054eU, 0xd1fe4de5e6f225ecU,
  0xae0fdebae6f60916U, 0xe10ce214f2ddb523U, 0xc5d601cb9cc1bf16U, 0xc2cc34b538e242eaU,
  0x9203aaaacaffd381U, 0xae409fb84398d614U, 0xf22b332bc8e7e428U, 0x3bb404aa0ce93be2U,
  0xcb2bf9e5bbce37a1U, 0xa90d210707be0113U, 0xf9c120b9f7cbfc39U, 0xf5e853892d232907U,
  0xb83321011b0b06d2U, 0xc15c04d267ee1a3fU, 0x41726eaf518e318U, 0x3ac10cb7e9f0f020U,
  0xbf1402071efd11d7U, 0x33233e200f517d4U, 0x2028f6e9e31a1207U, 0x30f0059006fcedf3U,
  0x12140432f6c6d823U, 0xc81746ea0cbff421U, 0x2aef0c142b20ecd8U, 0x3424e853fdd1dc04U,
  0x10ef1f37dd22e52cU, 0x23e42cf1105fe6d5U, 0x242c3f1b05070ce1U, 0x3aefacf4f6f5d9eeU,
  0x3209130c26ebfd14U, 0xed014014cbfff61bU, 0x6f6e8e1320526aeU, 0xe2cfcecbf8dc9e09U,
  0xffd1060b159d01b6U, 0xebda0a06bbecfceaU, 0xefcd04e2d09fcce8U, 0xcafda5fadbb1a705U,
  0xac9a10cce2bc0236U, 0xe0ddeae6dbcc9ef7U, 0xa0e113a6d3c5f237U, 0xfbc7d2b906d4e3adU,
  0x8f3ddcaf7e3b2fbU, 0xe2f82ea3aadce6a1U, 0xa2bfcbb84ace2e4U, 0xce2be7024fe60ddbU,
  0xd2fea9adc700d9fcU, 0xcf32b3f4e2d00abeU, 0xc9fd04e4c6d8bcdfU, 0xf9e2e6fa93f0bee1U,
  0xccd611a31cc7ccd3U, 0xe4db1afd1ab381dbU, 0xd6e42ace8d83ef2bU, 0xf52aeba8012afffaU,
  0x14dabbe2f2f81d14U, 0x25ec3feab5cb0815U, 0x4613d9c9e40a1d12U, 0xf0c5ef1e0c230105U,
  0xc0c8ebf710c2fe0cU, 0xebf3b0e5190ee82cU, 0xeef6e71d98c4bca7U, 0xd2cdeb40efeaedf0U,
  0xe9c3fcadf3f6002fU, 0xcdd3e7f812a7e0c1U, 0x3ef5e52bbcc5e5deU, 0xd01e437e6232ca1U,
  0xeb45baacd1ed4503U, 0x938ef251adca4fbU, 0x51de8523117a6caU, 0xa626f63d49e39b22U,
  0xf209f00ff5e3e3eeU, 0xe803a1e31b1108d2U, 0xd7c1290301dfe312U, 0xf2161f241bf5220aU,
  0xf1dbeeec101faefeU, 0xf8d400d0210409e1U, 0xe6d6df05d7dab8d1U, 0xd39e220b2cccdd0U,
  0xe9c9f4e1f4def2f0U, 0xf8cc24c5b400b1f8U, 0x191318de00d2030bU, 0xe620d743d30402d3U,
  0xe9d310d4f7e815edU, 0x6db2a02ba00c7f5U, 0xd3ad16f3f503223cU, 0xe50344f800e652f9U,
  0xd117010bdc3aadf6U, 0x111d11cb20fae0d8U, 0x35200716d2f3106aU, 0xe6d97dee48e17f08U,
  0xc16eeec5f41d1be1U, 0xcc78e62b2ddf0e26U, 0x162b1032dd04f53bU, 0xf0a45b735016b3bU,
  0xab360df3ea1308a8U, 0xc04a2e081ec42304U, 0xecfd2d022606ef11U, 0x8f908cd0f20U,
  0x2810e61020e40af0U, 0xeafce6f0ef1239e8U, 0x4537ed20111d51e4U, 0xfbff151c03061107U,
  0x6222e3d19154028U, 0xff0b201de0360ffdU, 0x1df742f1223c3fe4U, 0x1910dbe30fece518U,
  0xd9db19fb2ed4050fU, 0x2035311dff20a0eU, 0x2c0cef3ac2e70cf5U, 0xae154d1bf3fa0a00U,
  0xfee516d3f5eb21d8U, 0xe448b9dc36dcf103U, 0xc7c4250cb0c2e712U, 0xeb1afad3daedf4c7U,
  0xadda09eae0d6bcb6U, 0xb7cce3dbf6d6e5bcU, 0xdc20dbef8ed9c82dU, 0xd50d4fdafde052f5U,
  0xb6ded602b3f5c805U, 0xcf23bc0f2ccfe408U, 0xcdebf4cada0cfcd5U, 0xd1f8f1e0efb9efa5U,
  0xc6031fb0c824c1d7U, 0x1a0c09fbceb8f6cbU, 0x1edd2b13989ae30aU, 0xe11b32dbebfe120fU,
  0xff1f05e2d20c14f5U, 0xf614eed617a9acf8U, 0x17c9911caff4eb53U, 0xe5b866fc11f02e24U,
  0xc839fdce09dcd420U, 0x63026d0dd25d307U, 0xd0bfe3f70ceb0dc9U, 0x140b200dcb11cfc5U,
  0xaecccb5d635b901U, 0x3b4c51bddc39703U, 0xde0b446e2c802d4U, 0xb4e6cc4fb4efe2b2U,
  0x32cdccc8cb02cacdU, 0x2e0abaecfab1aee7U, 0xd1c0f717efecfbc7U, 0xee3eee79f1ef81fdU,
  0x43f6fdd5fe0e06f6U, 0x329dfdd7a61ec7a4U, 0x382e3a3740433bd8U, 0x1c09ea480b28e129U,
  0x10daf2341be51327U, 0x24d703291419500cU, 0xf41d0cdc2b354fa5U, 0x3cf6b967e2eddd23U,
  0x45e12511220b1660U, 0x24940742c4f83f0dU, 0xc8131cdb110b0aafU, 0x40f6e92099dc9cdfU,
  0x63d1291e2de6de42U, 0x1b9260fccf20ef0fU, 0x193d431302e537c6U, 0x4919ae3a10ea9d28U,
  0x4ecee40a262fe727U, 0x48c23b080cea1536U, 0x2440e5fd1024fbc3U, 0x321bc561d1e3dfd7U,
  0x3d0cef1c13fa1045U, 0x2ac05424b5f704f3U, 0xead50713f0d3e1bfU, 0x112b1c6ecafed5ffU,
  0x55dbdae80caffa4eU, 0xfdbe3fd9bc20cfb8U, 0xbe0326e9120e00d3U, 0x3e07db2d270fdbecU,
  0x28dffd04ea1df054U, 0x3bf2450d0c25f8feU, 0xcf21f604e3c5f0a3U, 0x25ecf11894f7f9e4U,
  0x6ec5d0eac8ae0f31U, 0xeaa54e119c10c1e8U, 0xf2abe4edc3bec39aU, 0x1ddc2318ec8acaaU,
  0x1fb5b7b3dbc89a0bU, 0x8812d9fa2e386a1U, 0x20e6fa45d51fe99eU, 0xd40132c5dadce4U,
  0x3113d0c108092436U, 0x5ce3bdfa005c0bcU, 0xd1c70aeb081afee6U, 0x52ffb20defafeb5U,
  0xc2b4c7ccd203d942U, 0xbea15e7c203db9bU, 0xf1e4cceadbdcff27U, 0xf312db811a0030aeU,
  0xa823c9b5cfd30bfcU, 0xba52042fd6d9b9edU, 0xeac7beded9e3d9d0U, 0xdd250c29e70b09e8U,
  0xfe0fc3faf71ddee1U, 0xd9d521bdaeecd1c9U, 0xe3cac935c808c809U, 0xcfed3c0311dc0ab8U,
  0x19dcf2cbf9e5f1caU, 0xe8ccd0d826d7a6bdU, 0x14e6fef1d2bf01dbU, 0xd20ee8f8eef9140aU,
  0xaf817e7d006f4c3U, 0xe727bb1502110430U, 0xf5f201b0c8bded9aU, 0xa8cac01ddcb8b0cfU,
  0xc3f80fb9c4f2f7e8U, 0xc1cce9d8ea149ed5U, 0x1ec3f11fa9e5b1c9U, 0xe81be12501e8ace9U,
  0xf0c8fbc0f30dd526U, 0xf0e306c40b1597b6U, 0x11e911000a1cfadaU, 0xee10fa1a0afee4edU,
  0x3ed20bc2f2121bbcU, 0xcdc2f2e7d813bed8U, 0xcd201bd9e41dc64eU, 0xf3eb590144fc430aU,
  0xf4e5e5deef55e111U, 0xf33b06fb48df190bU, 0xe3ad1af8e8e1da29U, 0xcd337dd00db46e3U,
  0xe9efd7ded431d8e0U, 0xfc1fc3e42fd8d9e7U, 0x217133ea2a2d311U, 0xefcdcfc2bdd1cbe1U,
  0xecdfdca4c80c3badU, 0xacce09f7eaa1beedU, 0xf61718f82c350434U, 0xf2c77fbb490e2916U,
  0xaf2c1c14181bf7c5U, 0xfa42ef114e0e1f38U, 0x4fd21ee230ff139U, 0x7f14dc755f92d36U,
  0xad21fe08f352e910U, 0x2234ed00430305f6U, 0x17ee3d1ecfcce250U, 0x3fed12baf5d933dcU,
  0xd7ded1dacb111ad9U, 0xd42f2ff846d1bce0U, 0xf1fd0f07271920f9U, 0xd5f3ffffec19e525U,
  0xf1d5162b29fbead9U, 0x1805dafb16382ff8U, 0xf7262224372deae3U, 0xcfa02e223dee717U,
  0xc81c2c034f0319U, 0xe17e3fa1a282507U, 0xf9144f090b07df27U, 0x5ccf2e993d003900U,
  0xee0df9f5fb3b1b17U, 0x724561c270ef9eaU, 0xc2cc28eab9aec009U, 0xf5dd2ee7ccdf26e6U,
  0x1be9acc7d507c7dfU, 0xc7131dd90fc3d7d3U, 0xac9fdbd88896c204U, 0x87cad78fcfbdfdbeU,
  0x96efd996b8f4be81U, 0x9cf7accde5c2c1b7U, 0xe1f601c7aece0717U, 0xb402dcc1d0effcd4U,
  0xad32d8b402e2048aU, 0xd123d415d5bef2feU, 0xd0f404ccd6f2f64bU, 0xc5f53fc325f43114U,
  0xd2faf2edecc7c6a0U, 0xe01bee1d1fec0808U, 0xdef22c11e2edc02fU, 0x1a05fccef2f420ebU,
  0xa8251c040921e3e8U, 0xff1a1f0819fd0a00U, 0x14312f4d8e3fe21U, 0x34ff18d31204222cU,
  0xc53131dd1c0132feU, 0xd9473e1fead10e33U, 0xc4d0e6dff904e5f7U, 0xd01f0f10ef15d50eU,
  0x2fc07261bd3bed3U, 0x612d7d6f116d2e6U, 0x132f0f8fb08ebefU, 0xee16df290401ecfdU,
  0x2921131b07cd331dU, 0x11fe2d1ecffbf707U, 0x233f0e09212f250bU, 0xf3280ffe150a2137U,
  0x24b3732fd0b0eedU, 0xf43d3f1aff010b38U, 0x12dc05530b1617f0U, 0xc10407133404c9eaU,
  0xae0090aedecf4ecU, 0xe1ebb00626da1ef9U, 0x30134f0002ced0bU, 0xf2f8e7db04f902fdU,
  0xcef6eafb0315fdf8U, 0xef1aeae71cd3e6dfU, 0xe7bc11bfd9f70633U, 0x290718d401ef32d5U,
  0x1af0d0f616f917U, 0xad0f1fef2dcfffe5U, 0xff1ef67ccf0fec4U, 0xf919e352e2d6d0e9U,
  0x39d206df02f612daU, 0x14c3c9e1dd0300e9U, 0x20bd1450fff18dbU, 0xf301e247f2e8fc13U,
  0x4def1cfffeeff6faU, 0x10ebf7fd1e081bfdU, 0xdeec01dcfce327f7U, 0x8e242d53e122107U,
  0xd200f503de14f4e5U, 0xed3009f03ac1101aU, 0x13ff0b2afde7d2d2U, 0xe21b0348f9f1c3f5U,
  0x20dadff412230ae5U, 0x23d6f0cb1806c7d1U, 0x1801f53809f9ccd3U, 0xf131c87ff421afc1U,
  0x3cd7f500e4122f04U, 0x1ddcf407d902f0c6U, 0x1ce4ec27dffce3e3U, 0xd204d828d819c902U,
  0x36cbf9d1deb9d8daU, 0x2db0ce1f1d80407U, 0xfeefd922de05ca3bU, 0xfee11ebb1f0d2317U,
  0xb9fbefea06bed5beU, 0x46d6fc3cc8ed2dU, 0x1ff1fce0eb1fc21fU, 0xe7cf2be328cef30bU,
  0xeef90710e80a2918U, 0xd2f403f501f123f5U, 0xfddbe409c3ddf3cfU, 0xf618ced716e3f105U,
  0x28111efe021f22dcU, 0xa04f8e519f106e3U, 0x800f42511d9f00eU, 0xf2d6e21d2d0d03e1U,
  0xeae0defaeba81207U, 0xe31637e9f7c100d7U, 0xede106100febf205U, 0xf6c9fbe1fce0d1feU,
  0x23cad011dccfe40cU, 0xcad7ebd32be7efd6U, 0x18bcc033dbdbc8afU, 0xe1ffe1f6e3cbddd8U,
  0xaffaf7d8cf25d2U, 0xf9ef0ad1df00c6cbU, 0x13bffe190b0bd1b3U, 0xdf13db15a31cd9c1U,
  0x29e3faf401911ddbU, 0xe8abe6dacac51bb5U, 0xfbf3ed20deeeebaaU, 0x1ca6e52bd1179edaU,
  0x2196fafdfff0f5e8U, 0xd5811201d0091bc4U, 0x6f6c128faddb795U, 0x26efd5e8bacebfb9U,
  0xeba807f3fcf104d1U, 0xce9cf2b5cee9c0dbU, 0xf60d1b0d204036f8U, 0x11041b5b4d17f738U,
  0x1d1e13241fd1f942U, 0x2dff371df329341bU, 0xfd111feffc072b07U, 0xeb0600f509280335U,
  0x1dfe1909c017f1U, 0xf903fc2006013323U, 0x3ed14cd0f2129dfU, 0x12ee020042170b21U,
  0xf3e9f63d1dfafc22U, 0x15163012fc282b0eU, 0xf4f62b03e1d5fec9U, 0x2b10cd56fb160100U,
  0x5cf5c7dffaf2fb33U, 0x38d13108f3f3d7eaU, 0xf01af7f900f4f2c6U, 0xeceedf54a718e5e5U,
  0x44fdf61b1107f01dU, 0x8cefaf4afeef21dU, 0x10f3f2161e091ae8U, 0x2624ec60c60c1204U,
  0x460dda0500d2e713U, 0x1ccf23e7a700f5f7U, 0xded4e2f5caee13ceU, 0x1eedf0f7ccfae2d2U,
  0x1211dbd2cddbb9feU, 0xf0fe46edddc4e1e1U, 0xaed501cbdef481U, 0xfff9dd38eff1a6d8U,
  0x21c9f4dfc7f7faf9U, 0xf7a522c8b9bddee8U, 0xfdec0923ccfbddb6U, 0x360fcb43c6e88ed2U,
  0x3aebc1fad4f02305U, 0xed8e2acbc90eb3d3U, 0xe2fe26c9bfdaeec0U, 0xefd1b2c4cd1cc2d1U,
  0x87c70bc2d8dbd901U, 0xdba61400ffd4d00bU, 0xe3ab04dc0be605cfU, 0xfd17348145d3eb0aU,
  0xbfc20725f74301e7U, 0xf80dcdf3e0e712e6U, 0xc020b8dfbec7a4a0U, 0x141dbdb4f508b0dfU,
  0xf8afe111dce1fbb4U, 0x23b2f5c0eeeacbf3U, 0x1b06052ca1110318U, 0xb8e3fe0ffbc40aecU,
  0xc2cafa0bd0a4d4a1U, 0xbecdb519eb17e6d3U, 0xfbb6e6e3cafd022aU, 0x451523e818e9d5ceU,
  0xbcfafb15c934c601U, 0xf0f0e8d72d1f1df7U, 0xb7c6f0d9f7d0c1c4U, 0x36e2f4cdee1dc7d0U,
  0xfac1cdbebbd0e4baU, 0xdcf2e7f2ecc2a2feU, 0x29c2062303e1a3c2U, 0x13ffac1dfdbfbbc9U,
  0xe3eebd16d3bd07a2U, 0x10d70ce3e1d7a2deU, 0x1a011ec5e217eca7U, 0x9d8dae622119bf9U,
  0x4d4e5f02646bf4eU, 0x14cf1ad9d8e219baU, 0xd4162aede9d604c5U, 0x2f14d4ef010aabdfU,
  0x31c89b0414e32225U, 0xbe042ae2c2f7bfefU, 0xf3f61c15d1e8fce5U, 0x1900f004dcd6aed5U,
  0x9adcac4e2cab3f5U, 0xaa40817d5fbe0f0U, 0xe6b5cee7afd1da10U, 0xecf9c3cedecee4b3U,
  0xc6e4edbfcc1abee5U, 0xbe07f3cbbbf8b9c1U, 0xe134d0e7f40dee34U, 0xd8f6c3811af232fdU,
  0x8333ffdbe7fdfdfdU, 0xd940d322cae2f61dU, 0xe6e4eb17b3cab9f3U, 0x6fb21d6e8d8b2U,
  0xa8ad7cbcbcabb00U, 0xd8c236f1d6ef90d2U, 0xc20a0204d1c1bee9U, 0xb21ac1d7e8dbe5a2U,
  0xe917b3a2e4cb07f6U, 0xc5f1ebf283e8e9c7U, 0x9f306f124022bf3U, 0xedeeb0b6f41920f8U,
  0xad332b34e4f02521U, 0xe8fd1cf392e327f1U, 0xe3e9c6dcaec5dcc3U, 0x1006f3f312efdac3U,
  0xf1d507c2cff7bfe9U, 0xfeb8f8fcc8fabee6U, 0xf123acd484dad6f2U, 0x99e4e905da0901e3U,
  0xc144cbb6dbe722d0U, 0xda3abc2bf4e0030dU, 0x1403d6cb3f37f7e9U, 0x22f4e2d30ff70e11U,
  0x9f1f2c2f32fe1208U, 0x1fef050becfaf42eU, 0xe214342bf31eeb36U, 0x1c212cf947fbf629U,
  0x818020f091b07fdU, 0x1c112e0b451cf401U, 0x1303ceaccece04b7U, 0xf6cadece21ec01bbU,
  0xf608dceeda16f9ffU, 0xfecae505e509ead3U, 0xfaf400f2f6fbe6e3U, 0x1e12fa021de105d3U,
  0xe0e304ccfa26cce0U, 0x13f0eef80bf7cfdfU, 0xefe207e61bf704beU, 0x1c0311ede4d7b9d8U,
  0x1012d8d6feed200bU, 0x10fe0712f0fee212U, 0xd0e0fed3fde5e6afU, 0xceddf6e501e2fbd0U,
  0xc8ed11d410f415baU, 0xc5f5d1f8b2e709e2U, 0xe0ea1b000200e1fdU, 0xe012d10813dd03e6U,
  0xdef602e1f0fdddebU, 0xd9d4f8e2ed07ccc8U, 0xf0d91016f0e6b8abU, 0x14d417e1cae4a7e4U,
  0x1de5d6f6fe0aff0fU, 0xe8f70ae7fee4d5e5U, 0xfef4cdd3f2f603bbU, 0xc4c7e5ebfaf79aebU,
  0xcfb9eee0f4ece6feU, 0xfbcfc904dcfad4e9U, 0xf0bfb6d2d3bef881U, 0xdfd6b40ce4e095cbU,
  0xedc3f9f4deafb8eeU, 0xc0d6f6bdcdd8b2f7U, 0xedc4f1d9c4fce120U, 0xe1104060df4f9cbU,
  0x4c6eaefe51cc52dU, 0x1edfeff12716dcd7U, 0xf0b2e01b8aa0f9f6U, 0xca24bedda4dd09c2U,
  0xfddab09eb8dcbffaU, 0xddbddd0ebfcfb6e7U, 0x21f4f010ce0de605U, 0xe219ebd4efe7edf4U,
  0xd0f70ae1e9d801d1U, 0x9ca010efdcbf906U, 0xfde321c8e20de16aU, 0xeef768e073e06e18U,
  0x8c3f120f184cfcc2U, 0xf56cd5e971f71e15U, 0xf2ff5629c1a5d76cU, 0x24e339abf0103e09U,
  0xdb2ef9d0f724ddc6U, 0xd45615ee1bc1f1ffU, 0xcf110bb0ce6123aU, 0xee0c032d1339d1U,
  0xd13d200701e404e0U, 0xc63a172d2f16072cU, 0xd11321d0410d16b8U, 0x838f264fe018113U,
  0xfbaa2933eff2eb3bU, 0x27d20ad20d3ae4d2U, 0x25282bfbf6fafbd6U, 0x3d230cfddfb1ea13U,
  0x34ddfccbebf114f2U, 0xd32540b1717f523U, 0x16012ed92306f91bU, 0xf5d0f4ec10bf171dU,
  0xb71d360e24d4fbf2U, 0xfbec1a2adce90f23U, 0xf007efc2f8c4fbcfU, 0x936bd19e301fcd4U,
  0xf1a6c6d0c4e0e32eU, 0x10bfffdca900a4a6U, 0xf7d5ada89ec2e2d2U, 0xcd1a24d0dfe7e6cdU,
  0x6c4d3afbcd5d8f9U, 0xb0c8470dc5bfb306U, 0xf5e9eefaa3bdd0d7U, 0xf7c4fbdc04e4dbf9U,
  0xc612f7c8e4f7f7b6U, 0xfcdea7d5f0fcb90eU, 0x17c74e09a8f71456U, 0xc90e4d041df63af0U,
  0xccfdefd000e9e8d2U, 0xfe570ac16ab210f6U, 0x32072e0adfa2e256U, 0xe6d320b70e2441feU,
  0xc41efbfad63246c4U, 0xb15cf8be2ba911f4U, 0xd7bdde08c91626U, 0xd5ee21b4f00b31fbU,
  0x811536ead4ec23d0U, 0x734221e1303d8f2U, 0x2b1ddae6ea2210d1U, 0x2f5cf36e1416ff27U,
  0x5def14d1e8dcdf1cU, 0x281ed2081f00230eU, 0x5e2930f7e61b06e5U, 0x233c034bddd1cb24U,
  0x7c031f0ee2e2451eU, 0xf3003fede1161b1fU, 0xc01c301d6e01eadU, 0xcf0cbd001fd99cbU,
  0xf4eae3fffacb12e5U, 0xfac5f1d8b9f10ce7U, 0xd01e1f11c2408fbU, 0xc6edf00a1d00e71bU,
  0xf400230cfef621fcU, 0xfa1cef0107181220U, 0x2d2810161c2dfe00U, 0xff05ef2a22edec17U,
  0xef8ec261e0d1509U, 0xf0cfdf308070c01U, 0xe6f4060e1c3c09a9U, 0x9f4ec131510dd02U,
  0x27cce83a0fdf0c15U, 0x11cb3219fa02351fU, 0x1d1c071aedf606c1U, 0xebfed003f6f3d7f2U,
  0xf5da070efa00e90eU, 0xf5cfdf06f90a17e4U, 0xd130af1f0d9f3d0U, 0x9f7063fd821e3f2U,
  0x3b170bf0fc06f70cU, 0xe71a00fde0faddU, 0xff07f102180a07cdU, 0x110fd329b813c6dcU,
  0x4ee9e9190203061eU, 0xfba610e4dce8e1deU, 0xb2c1f1200fbf5dbU, 0x70ac61e23f6d4fbU,
  0xf2f0e810ee1df125U, 0xfcdb050505fe0cedU, 0xf6fb0301e1e8fbd8U, 0x33030af1e8def8d9U,
  0x7e005d8db08e924U, 0xf2d917dff605dacfU, 0x13e7ff03b5c3c3deU, 0xfafee02190f6e6b1U,
  0x1cb6d7afc5d4f81dU, 0xeac921c6e2e781e1U, 0xbcfd14bdbfbcc416U, 0xe6d439bc08ee04c8U,
  0xa92206dacb0be9e0U, 0xc41803e732e9d5feU, 0xcbb109fcf0dbde31U, 0xf4d911f30f07e1f6U,
  0xdc170acaf7ece9c2U, 0x2514ca07c7e7e3U, 0xe9afead5e8e302ecU, 0xb9f5edef02bfd401U,
  0xbbef02f0fddef1c3U, 0xb71bd7f314faf4d2U, 0xd9f1dfdeeec5dcccU, 0xfefd5ed29c3a6f8U,
  0xbda007fa0002dfd2U, 0xe9de33f4d519db02U, 0xc0c6f2d2d4f5d7d1U, 0xf006eec012cdebfdU,
  0xe4f6f8fd13e419fdU, 0xba0de10515e4c2deU, 0xb2e8d91dd6e6cc1cU, 0xfa0430d5f8c9f2ceU,
  0xaae6e9e10f18e8e3U, 0xc6f3d60cf40d07d3U, 0xfcf0e0f7cdbde5bcU, 0x1dfcbc37e400a5efU,
  0x26c501ddd2e6f5caU, 0x8b6dbdfd002d2acU, 0xecd9c70015150eb4U, 0xf9f7bbf9f60dd80bU,
  0xffeeeffcf11ce71eU, 0x17d3e8fbbf09bef5U, 0xcbe500e3ff06d6b0U, 0x1eebf21b0509a9f0U,
  0x58101d1dce5f9d5U, 0xd79b00dbfe1cbbe0U, 0x29153103e0fcef01U, 0xe3eacff99d36f285U,
  0xee39f1dbce04f315U, 0x2acaddcceab4e0f9U, 0xf942ae4b10c8e315U, 0xb49000f2207ece9U,
  0xe1cd2dfe39fed32U, 0x43fa4fe025ae0727U, 0xf4c40d31dbf53340U, 0xf01a72d90d340f3aU,
  0x1bfef8a522fa1f32U, 0xef37000c2add2007U, 0xf2fef3ceb0bad3e4U, 0x190aa5d5181b1183U,
  0xaa19f4c5fe8feec4U, 0x3f62dc4d6cbc422U, 0x1fec42e9928adaebU, 0x270fcb60ffde00ffU,
  0x5136d0e8e8121b01U, 0xf7e31738f4fcc219U, 0xeacdc21bdaa7cfc8U, 0xe21cec64ff2400ceU,
  0xffeec0202f5ff06U, 0x5cf8d911bbeafb2bU, 0xfa1329299daa0211U, 0xaf2815fe0820d0beU,
  0xe82f9acaf4c1000cU, 0xd308bf02c5cde6d2U, 0xf82e1f4baaaa18f3U, 0x1617cef5d3ecf5efU,
  0xfdbe3d7ca0a1dfcU, 0x81dd3a26ada0d0d7U, 0xe0050230f499b3aeU, 0xf53ae54073ce1b7U,
  0x7884c218bbcd2bf6U, 0x51bc0bc0e4e4b602U, 0xf1ec1d30bcdde368U, 0x2c946a12efe5425U,
  0xc620efe0cf22f6b7U, 0xbb45dfd63cb7f6f9U, 0xf2e2c7f7f0ebfbd7U, 0xb7c6b9f4c4eacbe2U,
  0xcdb40cf5c1ecf3c6U, 0xd5d7ccf9f8d4c5ebU, 0xe9e400ecebc9e909U, 0x1f801e603f40fd0U,
  0xed02f0d3e015eafdU, 0xeeffe8eae803dee0U, 0x9eb4b3e0014f74dU, 0x561632cf310f2f27U,
  0xefe117f6011b020cU, 0x103c1ff72a0c0aecU, 0xebf2d6eaf1edcec1U, 0xc6e0b3f1ce07bacaU,
  0xffa30ae1ddcf00ecU, 0xdba8d5d6c8f4c1ebU, 0xe013e8fbc9d2df11U, 0xefefc2e4eaf7efdfU,
  0xcb13f7f70b18ef0bU, 0xc21c09109e09ebf2U, 0x62f19231204ef0eU, 0x5225040506e4e6f5U,
  0x3be20619f706e954U, 0x17043dfb0f20f8d8U, 0xe2d9c0dab7cff2aeU, 0xc1e29808a5da9ba9U,
  0xf6bad2b4c9ace2d0U, 0xecb2deb4b5d781bcU, 0x218d8f5c6def40cU, 0xc1e0c2f0bd070904U,
  0xe925f2dc14f020ffU, 0xcd0af71da3fb1604U, 0xf3ee0306fb18d300U, 0xc00a0af71e0425d8U,
  0xd8f1fddde9c01abdU, 0xed22dbff11070ff8U, 0xbd5e7101324da0fU, 0xc30a15e310d8e9f9U,
  0xece6ddced3c9e4U, 0xb622feecf6d91405U, 0xcbad37f0e2f601fbU, 0x27ebffeb29f9ecf3U,
  0xb4cfeef6d018e110U, 0xf81b02d505ebdfccU, 0xdcd02df2e502cad9U, 0xbf0b00310912b3c3U,
  0x11cce8fcebcd1dc2U, 0xe4bfd0062115d1e8U, 0x1ad437ee100fcbU, 0xfaf8bc3aa7dbcde9U,
  0x45d6cecf13ae181fU, 0x16cef614bcf6cc1aU, 0x19ef2fe4000700dbU, 0x29e519fe02f29cf2U,
  0xfeedce03ecf5c72bU, 0x13e70f07ee23d1ccU, 0xe9efeffb05f6f6bbU, 0xddf8fd122a03b0d5U,
  0x32eab1c8e3cc17eaU, 0xf8e902de3efaa5deU, 0x53331ccbfc8b0U, 0x1d2edc7cd41381bfU,
  0x3de6d1f3bbe60c37U, 0xc8ce00d50df0d9f1U, 0xf6d2f735f5ddb5abU, 0xed220043d0f4c5bdU,
  0x2ed1fadef2d81711U, 0xea8e31edc3e4c2f8U, 0x2b0c2810181613f0U, 0x3107276725120335U,
  0x4d311e1e1f19212eU, 0x14fc31001719330aU, 0x19402c21401136dcU, 0x49202a573735f83cU,
  0x5b0618171f0e2c3cU, 0x28c73029f8281e12U, 0xffe021142c2b09b0U, 0x4000f859ed00b102U,
  0x33c2192521fa0b2fU, 0x1fb02dfbfb130efcU, 0x1fe16cf09e40899U, 0x4322e23ada0ca4f3U,
  0x2cf2f3e9050e0c10U, 0x7cb48fad314f5f7U, 0xb0608fdfdfdfb98U, 0x2a2e0157f517caecU,
  0x6df4e3f8ea111447U, 0x2bb33601fa140705U, 0x25fff73d1d1fecb0U, 0x3028fa56ba08bbf1U,
  0x62dbedfc17da0416U, 0x10aa3bf5d708f4fbU, 0xd4e814bceadcf99aU, 0x3d0eec05e5e3b8f0U,
  0x8d8def6072ae918U, 0xebb827d9d011d1beU, 0xffdefce6d7c4df81U, 0x20e8b31fcdf8a9ddU,
  0x4baecfd3d0d9e92bU, 0xe831ddda8f6c9daU, 0x19ebfc3dc6dbe09dU, 0x131fe83881059ac2U,
  0x6895d8d1d0a0f1f6U, 0xda8e1fb8c5fab4e2U, 0xe0dc1dda91faed4dU, 0x1b084e982302354dU,
  0x8b5618debbf4ea94U, 0xa739e4c7609603fcU, 0xe7bcdbe598b0d305U, 0xdfc42ee7f5efdffeU,
  0x81051aefb1eeb9b9U, 0xac1bee100ed4b5adU, 0x220902a6e1dcf1ceU, 0xc1df26a4c8e2bda7U,
  0xaee3ccece7defba9U, 0xf003ea010df9d4f7U, 0x10eb1405101d20fcU, 0x1226ce2df60dddddU,
  0x17ca01debf1de326U, 0x2ffd51efcce315f1U, 0xf61c1cbcbdece90bU, 0xde10ed38c91ec1b6U,
  0x41e735d8cf38e136U, 0xf4d21cf9f00be8e3U, 0x250325a2ede0dae1U, 0xd8f7a127d7d0e0e4U,
  0xfcd6cbf10193e2e5U, 0xac4c9f3bd0095e0U, 0xe6ce0dc3e9d2d796U, 0x332cd543e501aebdU,
  0x1dc3b90bc41ed837U, 0x5b42ce1d601c9b6U, 0x34fefee7bcc33508U, 0xd7edb764a9190b9bU,
  0xffe617befdf02326U, 0xf0f0fe04bdd3eec5U, 0xc0f00d10e5c9bbafU, 0xae2b5348d0bc28bU,
  0x2bc4a4b1cfdcdfbeU, 0x28d3ad2b401b9a5U, 0xb5f2160508e5c214U, 0x24fa2f0df7f418f0U,
  0xffee109fa16b4fbU, 0xeaf3fbcf0c06e0d2U, 0xaabbe509c2e1b0ebU, 0xd0fbeff3e6cee2ceU,
  0xc99cc7bebdf7a6c0U, 0xdfb3efd0e0e8c8b8U, 0xe1f6bd1695a3e1b9U, 0xd4dbb5cf9ae8bdcdU,
  0xe8f5a7c49ad3ecafU, 0xe6ceb9c1c6c49dc3U, 0xd6dc2ceb050ffd6eU, 0x19d95801340e7b32U,
  0xe82603161e47dfeeU, 0x1337db1d5fe2312cU, 0xb2a42326e3c50664U, 0xf9e93ec746cb5518U,
  0xba28efdad93fa5e9U, 0xce4311ce4bd0f6bdU, 0xe5d62d20a281e710U, 0xeacf03eeebb60ad4U,
  0x96d5b4a8b91fbfc1U, 0xcb14fce92fc2bbc1U, 0x4f0091a545e2914U, 0x40558be4f2a2042U,
  0xf7092e213a36f1f4U, 0x2f3ddd085b333317U, 0xde1a3d1d1f26273cU, 0x172245d14be54d36U,
  0xd20c12fc0a210130U, 0x165735072a2e3ef1U, 0x8fa48e304e90353U, 0x19c966b95e015921U,
  0xb20b0df2f857e3d4U, 0xf1620e276dcc3f1aU, 0xaee4c6f79cc0cd97U, 0xf8faa1ff87e581f1U,
  0xbfd2ddb5bd9bbcdaU, 0xc48dbfb7a3ed98b4U, 0xc11fce5d3c6cc07U, 0x328e0c4e9fc3ac8U,
  0xca39fac6d0ca0decU, 0xcd09f11bbed014eaU, 0x91c0805ec01ed15U, 0xab23c2c7f71f360fU,
  0xb62cec310ddb30feU, 0xe3900f1b4e0dde1U, 0xc2a9dfbfb8ceb5faU, 0xd9e6c1b9accdf2abU,
  0xd2cbaabed2c8e7eaU, 0xc3c1c5e6a79dd3c6U, 0xd3b0e0acbd81d3dU, 0xccf4e1e6eff04911U,
  0xfa5be9d6f0f54ce1U, 0xda1b150eb3d73938U, 0x1ed3c4f4f9efe2e2U, 0x301e09d0f41142aU,
  0xd3f3023213e0ec5aU, 0x282afae3c1eb222bU, 0x16f8ceabc4b0c23eU, 0xd0e414cbbbea39d1U,
  0x943bc4a6c4b318c0U, 0xda08fdf510cfbde0U, 0x535df60a20190f44U, 0xda14eb36092a232bU,
  0xdd49ece905a824d7U, 0x166bca14cdc01c4bU, 0xfddcf11c2a4918d6U, 0x2824c3f1ed17a746U,
  0xd4d02b46ed00ce48U, 0x1de22efccb330ae9U, 0x383601e28ec8db06U, 0xc1f20aba53eb12c6U,
  0xdd34ccb9ebe858c0U, 0xce31f1111ceaf8eaU, 0xf72de9e9e3ade341U, 0xf72936bb5226fdf2U,
  0xa157becbf2e13302U, 0xda3ae5034df3e1edU, 0xdee9d520e4ea3040U, 0xcdbd1ade26ce4118U,
  0x944c2c1012172ba2U, 0xb130ffeb3ef03603U, 0xdae1d9e9c6d6d9adU, 0xfd1bb8c1dfddd2fcU,
  0xfadea8a316bf429bU, 0xbd040ebddfe4ddc5U, 0xe5c4cdc9efad029fU, 0xcef68d19dccfb1efU,
  0x1de6bed3b6c20ae6U, 0xc4e3e501f1ccc4aaU, 0xf4c4d1e9f2ede5a1U, 0xfed0073af8dc81b9U,
  0x899f0d7ff000accU, 0xd091d2b1ccf4beb9U, 0xd5e9eccd87e20501U, 0xc6e3e4092421d8caU,
  0xfbe7abe9011df8baU, 0xbe17f5abc0e0d0e6U, 0xfecd1df8bcf0eb2U, 0xd5d5a13af31da6dcU,
  0x1ccfd6e6c900ed00U, 0xe5eab305b2f3c3c1U, 0xe2eaded4e8d4e4bcU, 0x1614bf12b2e9a9abU,
  0x11a1cbbcf501c3ffU, 0xff812df2f106afb2U, 0x1d011f0c4c7dd30U, 0xe71430d81ee413d8U,
  0xa207dacb09f6fdbcU, 0xbc2edbcf0ab90301U, 0x80e10cad2def326U, 0xf1dafbbf2fc30c06U,
  0x932dd5e6ed10f6dcU, 0xe735d50806ca1005U, 0xe51cfcffefe12429U, 0xeef302af1e001a18U,
  0xb512f6e201f20dbaU, 0xcc36f416f6c41314U, 0x1d232b33c6e8dd35U, 0xf445131f00fb1afaU,
  0x2df3bbfcfdbf2817U, 0x9fc44d6ec1feeffU, 0x72322eef804f513U, 0xa31e8f8f0240df3U,
  0xdfff507ece21313U, 0x81a1022db0b050dU, 0x3130d17eee2de09U, 0x11d8dbc6deffdcdeU,
  0xf7f0dbed0a9b25bdU, 0xf7f709e9d1dd00fbU, 0x1fefe814e1dae2d2U, 0xff20ee5405f1d1f3U,
  0x56f8dff4fa081ff3U, 0x18f812bacbf5bbdfU, 0x11e5d028e8eceda5U, 0x914de660beb99c1U,
  0x46bbf3d1e8f9e512U, 0x30c21af4d410c6e2U, 0x7e21c2bf1dc1784U, 0xd12697469dfb81f6U,
  0x58ef0205e2bf1ce7U, 0x49be3e1a911d711U, 0xaced4e509dad4faU, 0xf4e000b81a0227d7U,
  0xabe5ed0914ced3daU, 0xea26e5dd0b0fd5e2U, 0x18e308e3cbd6e7feU, 0xffe6dbddf9f505ecU,
  0xc7f3d7fae20ae3d2U, 0xca04d1f8d4f1ebf6U, 0xf41b3ceef4c5d8e7U, 0xd6fae6c03ce53908U,
  0xc1e2fbec07e308dbU, 0xfa18f00717c9d41dU, 0xb9edcf06e5caddd2U, 0xbacba8e505d2d303U,
  0xfbab03121504abedU, 0x4f3b0e4e3110bbeU, 0x271dbf10d311fa24U, 0xdddb14cc0a041810U,
  0xfaf1e3dff910eb14U, 0xf716d614ffe9dff1U, 0xefd1d4f815eb010dU, 0xfbffe9032ecf1f12U,
  0xd42b2801d9dff1daU, 0xcfe08f407021315U, 0x3f6fbe6dcfdeec5U, 0xfae6ef1430f8bce1U,
  0xed04efee0202e0d1U, 0xf8f7c4b61516ddc6U, 0xe410c6270df211bfU, 0xf306a230daceadddU,
  0xf4ead202e7c8eed4U, 0x2da4df03a823f8c9U, 0xc7cadc13e2e086U, 0xddeced55f8fe81d3U,
  0x7da29e212141ed3U, 0xedb8eaf2f72302ceU, 0xf9f62bfac2afc3fbU, 0x4122e9e238c31ef4U,
  0xf2f107cc30abdb24U, 0x3e8c719fd1fd005U, 0x1a0825ccad00c9d9U, 0x24dee79c51cdcccaU,
  0xd004b019081432ebU, 0xf42acdc405040ae3U, 0x1fe343bc2f6d549U, 0x181302ada80af79bU,
  0x9b1fbae7fab43917U, 0xd525222209ac0bdbU, 0xe8c6e64602feaa30U, 0xd0ebbc02c12cf9b5U,
  0xab11d90222c5e8cbU, 0x212d07bc1c10c90eU, 0xbdb06061612d601U, 0x57c7e6e916ec04c9U,
  0x3001010801eec355U, 0x2ce4edfcbee4c88eU, 0x40190849d8a5fc1cU, 0xdbeaf0d2e0f000edU,
  0xf92c16f406033915U, 0xdc03f3df25cfd71cU, 0xc5ccb55ff4f29cd6U, 0xdae8c434a1f7e7aaU,
  0x19e0e1f9fa0edce4U, 0xd384e3061be496f2U, 0x9dd93f111fc0dbc3U, 0x21e7f0e4abdc9ed1U,
  0x198121b40734fb3aU, 0xf9d90ededc04f3bfU, 0x37ed0e05e3ad01aeU, 0xf5cfb8e9eac0c4c1U,
  0xff2ccdcafd843d5U, 0xe0e113e4a4ceb006U, 0xfffff4e7fffff09fU, 0xffffec00fffffcc1U,
  0xfffff1cdfffff67bU, 0xfffffecdffffe8ccU, 0xffffff510000001dU, 0xfffff677ffffeeadU,
  0xfffff7c0ffffbaafU, 0xfffffa0dffffdff9U, 0xffffe7d2ffffec4cU, 0xffffedb2fffff736U,
  0xfffff883ffffdcffU, 0xfffff186fffff223U, 0xfffff495fffff029U, 0xfffffe94ffffe336U,
  0xffffee2bffffecc3U, 0xfffff410ffffe764U, 0xffffe160ffffeed5U, 0xffffed93ffffee4eU,
  0xffffee97ffffc4e6U, 0xfffff45bffffd943U, 0xfffff5b9fffff615U, 0xffffef0cfffff48bU,
  0xfffff1b8fffffd00U, 0xfffff120fffff861U, 0xffffe630fffff6fbU, 0xfffffb82fffff3bbU,
  0xffffe68effffe3f6U, 0xffffdb73ffffffd8U, 0xfffff404fffffb06U, 0xfffff45cfffff683U,
  0xfffffb81ffffe36cU, 0xffffcf3dffffe1f8U, 0x2c1f001d232b1175U, 0x1be52016f840ccd7U,
  0xf9f7d50546601f0dU, 0xff352b062df6e625U, 0xc121773a1f6c1bf4U, 0x2b08dded39437025U,
  0xf7081219c82c41feU, 0x828f9006172ffbaU, 0x371e0b393032fb35U, 0x2cdc1af00439ceddU,
  0xaf5eaef3532fcf2U, 0x17320d051811f10fU, 0xed2a49442b4519faU, 0x37fd0bf549313607U,
  0xd18f403e31425e9U, 0x110b23ff383506c1U, 0x2a01270b0f31002eU, 0x90c0909ee1be4e0U,
  0xf80d00fc3714fffeU, 0x1f2d1a2b32270316U, 0xd41720083b381f06U, 0x2efb46062a32340bU,
  0x181cfa08f71822f0U, 0x26092a23332013d1U, 0x913351a181f0f35U, 0x2d0d0c0df600fc0dU,
  0x161e06082d13141fU, 0x1b1f2b2e0809fd06U, 0xf42221f92c290dfbU, 0xef03392117091f02U,
  0x141d0602130120f2U, 0x192f1a19fd0f29d3U, 0x251520340829182eU, 0x3e0915091d0ff528U,
  0x2d111f11201c0f26U, 0x314261e23300326U, 0x2b2d0d07321e1904U, 0x2306392830101a18U,
  0x2a2efc021c1c1f1aU, 0x20141f1bf8251201U, 0x2b2a3cfa0216fa20U, 0x3f3a200402302711U,
  0x20c0915ff1a1e0dU, 0xfe261d1d0f1e1a22U, 0x6111a11052c2613U, 0x2bf6401d0b1b2406U,
  0x3104fa142003261eU, 0x301d1a2e2c131721U, 0x1d152113190726U, 0x2f3519091711110aU,
  0x360d121efd0d1c16U, 0x24170e1b1b1813ffU, 0x1011261f12191c12U, 0x250b2101113d250dU,
  0x1e38041d250d2408U, 0xa1d0b10f927ff23U, 0xd22f51c040d0c21U, 0xff250e1328fe0afeU,
  0x2a060e1011211b10U, 0x2011330c230d1c2eU, 0x9fb340c0a23f40fU, 0x1f08fb18f5202f1eU,
  0x2b0d1513202f150fU, 0xfd220a04ff2b10f8U, 0xe929e71d03f8082bU, 0x130dfa14031fe8fcU,
  0x1d04fa0c130d1002U, 0xb04150b0305fd14U, 0x80c1fff0b19220dU, 0x1f15f81e110b1c0bU,
  0xe20fdeb0a0e1bf5U, 0xf301eaf9012a1be5U, 0xd704fb07f9d2e7fbU, 0xf6dff70ae2f2b9d4U,
  0xeed6c2fbeb14f4f9U, 0xede507f819feed0bU, 0xf6082806ed2016ddU, 0x1201b3e1f1250a08U,
  0xf3ee0beae00c07ebU, 0xfcf4c8020522e69eU, 0xf8275c1f34201034U, 0xf0403d08f0ea00f1U,
  0x1821fb0438191c25U, 0x7f281ffbef080725U, 0xd21a2806282f0d2aU, 0xf1113b23340e32f9U,
  0x10f11716da1030eeU, 0x2433552d0e382ae2U, 0x1f013227ed0c0417U, 0x213413ff25f11bf5U,
  0x2d0f080906f10f16U, 0x1b180d4122201207U, 0x9260e1922140e11U, 0x8001c1a3509031dU,
  0x9250d020f0e1bf9U, 0x24272521ed081a00U, 0x1b2625f6eb0b060eU, 0x30eee00e51f0f01U,
  0xf106e70209fa100eU, 0x2230d0524110419U, 0xeb27030e0dfa140aU, 0x1ae8240504150c0dU,
  0x16040913fdf01b0fU, 0x241b0f31230001eeU, 0xef170b020a1a1115U, 0x120dec0dffeee400U,
  0x2204fa10e8f70b13U, 0xe81600100cf80f09U, 0x101201e52a0e0afdU, 0xf7120513171a15U,
  0xf151c0412f21901U, 0x1dffe311ee10f2e0U, 0x2304f01a040b15ffU, 0x1ff2e908032bfc09U,
  0x27f7faff07f206ffU, 0x1713f4f72d0d092cU, 0xfa030c0008f7f105U, 0x29fd211c1ffa0b29U,
  0xa0d1addfffb0505U, 0xcfceecc1af1f9f0U, 0x2a2423db0e1e3918U, 0x1419dc28da09e3bfU,
  0xa13e70a1e11141dU, 0x1e0414ec05f5040cU, 0xda251a27050f1707U, 0x180e1b0e2d151909U,
  0x4ec1febee2806deU, 0x161e091703fcd6U, 0x11731fe16371b38U, 0x1f2b0e29fdfdfc15U,
  0x1d1b05232b1c0d17U, 0x24100f26131f371aU, 0x3172d1f22283702U, 0xf8fffd061510341cU,
  0x1522fa04080c2c18U, 0x62a020c113726fcU, 0x40717161127181dU, 0x1cfe180a0e0c0718U,
  0x2d16fa0d0d180700U, 0x19142c130dfe050aU, 0x91e1b192a22151fU, 0x1b00f01135172705U,
  0x131f26112a082316U, 0xe2308fa221d0502U, 0xff28051012330960U, 0x53f13819f62b00fbU,
  0x24f0e8132e571a1fU, 0xa2216112b03eef1U, 0x130f6510275c18e1U, 0x1e0ffc0f13495015U,
  0xe8ff0f15173c69e1U, 0x191c010a505f16ecU, 0x21d120f3a23e93eU, 0x20fd40250423f406U,
  0x302f7152b581814U, 0xf4161a12f200f50cU, 0x91d5f39384f17fcU, 0x23fafdfbef514429U,
  0xc062520d74f4709U, 0xfb10241550610fe9U, 0xf7051d2b270b2512U, 0xdf341900f1c62900U,
  0x1119361a2f231f07U, 0x16230e0febfd292fU, 0xe0510fc1636192bU, 0xcd150c1532f65702U,
  0x22df1a1c020e1800U, 0xf1ff325e54e1a2dU, 0x1fdeb20fbe50419U, 0x1806ee1237011819U,
  0x1af7260cef06090bU, 0x50be8230e253826U, 0x2a15f60e18070803U, 0xa01241b3ee6071fU,
  0xe0416142ee517f9U, 0x1916d9f2e3121538U, 0x1209d405ea0013edU, 0x18fef008d5050fefU,
  0xfae6040707ff0514U, 0xa0ef804fcfd1008U, 0xef0ee71a11f706e8U, 0x10f2220a15ebf103U,
  0x7fa11f9f6e9f3f0U, 0xee15fbd60acff0f6U, 0x111efe8ec020804U, 0x1a15e520010fd7f3U,
  0x1af4040af0faf908U, 0x1e16ff2220041affU, 0x1e8fa04db0ee3U, 0xb06d5ff1216f601U,
  0x81604ee27f5f9efU, 0x2309f50bffd5f6deU, 0x170c05faf1f3fb04U, 0x7f902fffb1a0c13U,
  0x140ce914f3f6090fU, 0x4ff110b0bfaee07U, 0xe1060a09f40c0814U, 0x21041efc02e9f5f4U,
  0xfedd240df7f6fef5U, 0x1813fd1330eeedceU, 0x21160ddcef0c14f7U, 0xf9121c19dbfbdcebU,
  0x9fe031efbe40704U, 0x14f912fed41f0c05U, 0xeffbfcfefffa01fbU, 0x104080019e6f91aU,
  0xfbe80e07f90fe0e3U, 0x150c02f90be5e8edU, 0x811f910101c250fU, 0x171e19130816e907U,
  0xbf705170ef8fe10U, 0x2df2f92817172602U, 0xbf1040f0bf8041aU, 0x604e00201f5e40eU,
  0x1c2825fa120a0700U, 0x80efdf800e31aedU, 0xee0df627f90212f2U, 0xfb190c131beaed08U,
  0x1df512ff12021620U, 0xb07091a1320fb0bU, 0x18fc152603250106U, 0xf306f71f10fd0e13U,
  0x130526111c04fd15U, 0x1c040a1a14200200U, 0xf31a24113134fd29U, 0x491a2203101c040bU,
  0x311f061c1a0d071bU, 0x220382a2600111cU, 0xa18311638311a05U, 0x2f0701131f190904U,
  0x1331051a222725feU, 0x11101b04200618f7U, 0x12121927401b1b1aU, 0x37252320191b0807U,
  0x51b0a2918090e16U, 0x10231e2c11021a26U, 0x312f2f0223271229U, 0x24010c231932270cU,
  0x22f1417101c211dU, 0x1c0a480b231d4403U, 0xe0d382017e41bf3U, 0xe5202bf9eed21c07U,
  0xc06252308e51112U, 0x2745fd07d8f10c23U, 0x1511f3f4ece20826U, 0xda0916192bd720f6U,
  0x1fdd0012340dfaffU, 0x70bfa1adcee1f35U, 0xf4101c2402e803f2U, 0xee1dd9fd36fe4607U,
  0x450c1bff10100419U, 0xa2eff3fce054306U, 0x2809fd07f4090c0cU, 0xd1ec371821e13c0cU,
  0x4e10e0f3afbf30dU, 0x120301f9cb2d104bU, 0xf08f21afef10c07U, 0x2b011101dd063f03U,
  0xfd18ffef05f903U, 0xfa090e58e20c22f4U, 0xecfffcfe01f01404U, 0xeeef15f40ad00712U,
  0x14291bf1e9ecfd00U, 0xf602fcf0faf20108U, 0xefde4f10af4f2fbU, 0xa2ee213d7fce3e4U,
  0xf304040de8f6f7faU, 0x4db14fa230a1e11U, 0xd4f80cf403e9fdefU, 0x201ffed080915dbU,
  0xf3eb11f5f3e1e2e5U, 0xa0319f3f3e0fe15U, 0x709fff41deffb17U, 0xf902291bde0004fcU,
  0x5fbe60fdbdc0007U, 0xf2fcf1e4f005fc00U, 0xe3f80df01a2c15ebU, 0xecfd16e3e8d1ff06U,
  0xcf12906ed120cfbU, 0x15fd0a031beb06efU, 0xb1507e1fcf923e7U, 0x16e90ce0f3f1e7U,
  0x7000317e9b901fbU, 0x4e3f605eb140b13U, 0xd8f9fb0205fd0609U, 0xf3fd1eff08e3d0fdU,
  0x1d11c0f030ed6f4U, 0xa22f709fab8ede3U, 0x2f05fe0e0af412e3U, 0x21222218fd291508U,
  0xe81aff1ff8da110bU, 0x3206131b2d0b0c0cU, 0xf8fe180ffbfdff2aU, 0xfce703f9fa03c30cU,
  0x281d24160a23d111U, 0x130a342129cd11f8U, 0xe2220c091c272b12U, 0xd191d2619f70902U,
  0x28fc002923f40618U, 0x16262228e6170a15U, 0xe0f03fa24091108U, 0xea2a112f29f50502U,
  0xf522170920112304U, 0xd1c041d17ea2518U, 0x1e1c112b0f05071cU, 0x33172315191e312dU,
  0x1d142c310af3012aU, 0x4341e0f1615fd1bU, 0x230e0e0f1b0a060cU, 0x3c133b2914ebf926U,
  0xa2505f82df91b0bU, 0xd200aee34e8281fU, 0x1d030d2527eb0c05U, 0xd0f3ff1940033041U,
  0x400b4715e9ce0308U, 0x3f713f8240b2714U, 0x36180217050a050cU, 0x160c3c2927feed21U,
  0x10115f52eedea33U, 0xc1ed90d0fe7f541U, 0xfefe0c1b05cd06e3U, 0xd21beff0e2d327eeU,
  0x5181b0fdcc4ff09U, 0x20f2d8e4cdcf170aU, 0x6cfbcf7d6c8fe19U, 0xc7100e05f9bac7f0U,
  0x14dd17033df6e201U, 0x909e6fdc3dc0e34U, 0xea0bf42fe8e5f6dbU, 0xec0fd9fb30f22e1eU,
  0x2cfb0308e903edffU, 0xfe03e814f9ff2200U, 0x16f4f50fd6f20f00U, 0xe6f410071deb3c05U,
  0xaf20a0039eeecfdU, 0x1403dff5d754fa43U, 0x20f71203f0de0b08U, 0x13160e02e71d5c16U,
  0x1303230bedf7fd06U, 0x4fb0a45060122f6U, 0x8001901f9080217U, 0xdfe21f607e50418U,
  0xc0e160211f2faf0U, 0xf8fcf4f60c00fe35U, 0x1f08e3e5f7f2f202U, 0xf0fed18d7ff2d04U,
  0xe1ef0f02ffe8f708U, 0xf5f4fefe200a301bU, 0xb08d4f106e8f5fbU, 0xe4f613f907edf2e3U,
  0x2db08f901f1e5f6U, 0xafb1409eecafc26U, 0xfe0deeeaedd1fff6U, 0xcf06eefa06e0061aU,
  0xf8e70506a9e6fe00U, 0xd7e4e0ffc9e909ffU, 0x2ceae4fee5f1f906U, 0xdef816f2eec0cb04U,
  0x4c314f81dc8e401U, 0xf90a0bfbfac10d28U, 0xf50cda03d0cffce0U, 0x3107c7002e12260bU,
  0x5ee140ea1dbf0fdU, 0xdde3d0e81a072507U, 0x27eed1fdf2cbfa0bU, 0xdfd15001edec60aU,
  0xfd1e160122d0c7ffU, 0xf616e4ecfec8f94aU, 0x2e08f8f6dfcaebccU, 0xf214fc0f1129230bU,
  0xf3081cfacbe2f50bU, 0x6e2ecee27f91109U, 0x11f8f010e2ddfa1aU, 0xfef506fdece9ca0dU,
  0x9ec22f717d2c6feU, 0x82e110225daf631U, 0x1c0116fbf1e922e9U, 0xfc17e51307fc261fU,
  0x1a002915d0fb00fbU, 0x1707f9fc22fbfa11U, 0x27fff60ee5edeefdU, 0xf61621241afbe610U,
  0x27031d0e3eebe8f9U, 0x4171a002ee80b36U, 0x34f7470610d21feaU, 0x20bef1508275741U,
  0x22c361eeafa0c16U, 0xbe802ef5b03fc1aU, 0x1f02f418dee8f841U, 0xfb04543112f3da03U,
  0x16eb0e093a01e238U, 0x302070f01d9495aU, 0x1701070e03e7ead2U, 0xd706d912241a360aU,
  0x30ef221be20b0803U, 0x17ec03de2df72010U, 0x260fef14d3d10004U, 0xe9052f0a14cada05U,
  0xfdcd0bf82006d61fU, 0xfa07c90412efff45U, 0x8071905d3f8f4U, 0xf2030befecdcfae6U,
  0x5f50c09e9f608f6U, 0xf0903e4e3d6fe03U, 0xdc0fdedfe6dbfd0cU, 0xdc0bf5f216deccdfU,
  0x9f6fc000ff1ccf7U, 0xf6fedfeed9e502fbU, 0xdc0c0115fed6f6dbU, 0xf503f5f9e809fef6U,
  0x20f5d906f4edf8f9U, 0xedf1f1fc04fde503U, 0xef0de1fee800f6daU, 0xfdf2ebef13e71f07U,
  0xf706fefffeedd6f0U, 0xf4fbefebe6fefffdU, 0x19f600070ad301e3U, 0x1a0e0900fc203f1dU,
  0xe0412090e03f608U, 0xe8e8f047060f1b05U, 0xaf5e4f0edfeff0eU, 0xff215050eef0c07U,
  0x9fa10f730efffffU, 0x7fef6efee05fc36U, 0x280fe20ff2cc05dbU, 0x11ce7100d08391dU,
  0xebef0708ff0a04f1U, 0xd5eaf500fa0c2212U, 0x1efaeaf0f9ecfcf7U, 0xfdf10bf314cfe703U,
  0x4e8040421d9e20bU, 0xf004efe4f8e00439U, 0xebfd0cecfce2f1efU, 0xf70f09f91af51500U,
  0xfc1ce40eefe7f3e6U, 0xeced0e01c7111404U, 0x4fe3edf6f6f1f0f8U, 0xd3f915ec19c5d5feU,
  0xf1c923feffd4ee08U, 0x70b070dfdc9ffffU, 0xfdfef810f1fff5feU, 0xfcf9e2f73b1c2d3cU,
  0x16fd0b0debe4fce7U, 0xe909dfde230c0b14U, 0x24ed06f608eef61eU, 0xfee6180bfacce413U,
  0x5ed09f313f7f9fdU, 0xf802f3edf1f10c38U, 0xfaf917ee24211816U, 0x19de04f8181ef8eaU,
  0xe206f719efb5f3f6U, 0xf719def206ff11f9U, 0x1a17e11605f11ddeU, 0xfaf3e90303e7e019U,
  0xef015f50c04030aU, 0x6e0f7fc2bd1db07U, 0x16082c2b220b1aebU, 0x11fa07fb1f17371cU,
  0x2d1721efe2e1f3feU, 0x309fc1c1e0627f5U, 0x2fe9e508f5e9fe0bU, 0xec0428f719f1d7f4U,
  0x18540a0e45effc21U, 0xd1f001306de0d1aU, 0x4f1014de1a2106f3U, 0x206161af91a2dfeU,
  0xb210402f3e60efeU, 0xf60a06031af2e806U, 0x17edf4f70ffcfa04U, 0xfe000b1f08cfe118U,
  0xfc161910130af900U, 0x1911111bf6f2031dU, 0xf0f4fc14fe04efdbU, 0x13f70208230a0e17U,
  0xff160ffaf2e208f2U, 0xf303e0141cf60febU, 0x1cfae1ff07f0e916U, 0x1f2131f08fae21eU,
  0x122407fb1c07eefeU, 0xf907fe0914e41318U, 0xfe010115120b0815U, 0x8100903ddf7f0e0U,
  0xf90f0d0ffa11f503U, 0xe326e6050fffecfcU, 0xd20d06f8fd18171aU, 0x1005f2fd0af00606U,
  0xfce60d02e60a10f4U, 0x518e505f12bffedU, 0xd9fc1133040403f9U, 0x8fcfe02f2ddf5f0U,
  0xfef6cef7072cf5fdU, 0xf8fbf5daf5fbceecU, 0xef061003fb050de6U, 0xbf3de07f7ff15f5U,
  0xec02eafcc315f807U, 0x8000700e521f1d3U, 0xf90c0d140bea0523U, 0x24000efdfd07d0edU,
  0x20f9baf5fe1af5fdU, 0xe70cfd401606fcfcU, 0x14003d0b152dfcf6U, 0x1de8d8f81d0a23feU,
  0x2fd070504e70706U, 0xa03eff8fa23f8d7U, 0x23fee81f25d4f302U, 0xdffe2af60dfc0217U,
  0xf9e3151a1600fdU, 0xe70004dcdef9f411U, 0x17ff26f018150300U, 0xf1e9eafededbf5f3U,
  0xfadf0204fb06f9feU, 0xf7f8f3f8f72f12faU, 0xdd06f30cebd9ebd1U, 0xecf8edee1cdb0800U,
  0xbf4ec07def002fcU, 0xf1dbfb09d01211f1U, 0x4bdae4f2e2eafe02U, 0xd5e80700e9c6e2e1U,
  0xf6ef0d051aedcb05U, 0xfeeef70ae3f6f90cU, 0xbf2e70b01e603eeU, 0x9f605f8001dfefcU,
  0xeffcd708e516f0f2U, 0xe1dcf90517fdf8ecU, 0xe8ed17fcdbeb0706U, 0x11e0e2ebebecd9f3U,
  0xf9fc11f8f3f8fafeU, 0xf5fdf9eb16f6f5f0U, 0xe5fdf40911f407f4U, 0x18eefbfa021325f2U,
  0xfd18fcfcea1ffcebU, 0xfcd505e0e2f7e50cU, 0xfbeb1304fa0b15f6U, 0x17e5e9eddc0cdf13U,
  0xb2f151210faed0eU, 0x30de4f543fbf6faU, 0xfe021d05eefbfdf9U, 0xeaf1fd10f6fa3ae6U,
  0xee0915fef008ede9U, 0x1d0914d61606fb12U, 0xf618fcfb00fa05fbU, 0xeee07fd190ceb07U,
  0x3dd15190df9ee15U, 0xa24051120f0f128U, 0xfff01206040cf4fdU, 0xfd01ec15011216eaU,
  0x20172bf9f503e501U, 0xed0713fa43ed1aeaU, 0x25f7e8fff6f50be3U, 0x26fe2c240e12eefdU,
  0xcec140c1ff40103U, 0xfdf8ef0707f9fc23U, 0x6f000600d1eae0c4U, 0xe2f8c7150f384109U,
  0xde0c38f8cde0e4ecU, 0xe2d8bf0461f105d5U, 0xfcf1daf3d2bdfc15U, 0x31ef2beeefc7b603U,
  0x4ec05d602e5cf0fU, 0xf3f2e1d714c7f130U, 0xe0d29f8130e140fU, 0xfb2030f2fb0e1cedU,
  0xf10a1eff14f6fdffU, 0xd2111fff1151a0dU, 0x410f90301e6ff25U, 0xfd0f250f40e5f706U,
  0xf3ec2a062f01060dU, 0x160e230afdfc0823U, 0xea04021f12070608U, 0xfb19080007ebe6deU,
  0x14e6fef5070401U, 0x221fc0ef7ffd5f5U, 0xfff7ff14e8ef0c09U, 0xfbeef4033406f911U,
  0x816f9fed2f4f7feU, 0x130506fddafc00e0U, 0xe0100df8f11d0120U, 0x13fde90622fcff03U,
  0x16f2f2f6fd0dfcfcU, 0xf8250a2012e30b09U, 0xe3090df128f2fcfaU, 0x15ebf206041a07faU,
  0xf80202f9f20e140aU, 0xf60de9fce61d0df3U, 0xef08f416fae80407U, 0xdc01fff209eb0609U,
  0xce4dafeef18030bU, 0xe12afbdfe3dbe700U, 0x6e704e713fb00f9U, 0xeaf2e307f7e933d5U,
  0xebe00ef0fdf5f9fcU, 0x204f805f63b04ebU, 0xcaf4020ef0f002f7U, 0xef10d7ec1cdd0703U,
  0x1ce5e00cee39f5fbU, 0xecf9f110de1809fdU, 0x17f10dfce4fc0203U, 0xd4f0e1e7ede2f1e6U,
  0xff0a00fa04e8d90aU, 0xf408fbf7db3cf30aU, 0xd030c1d1408f210U, 0x1a07140f002c31eaU,
  0xf90b0afd117500ecU, 0xedfcea1e320cf7f9U, 0xfef457f2021d05f5U, 0x16eb0bfc090cf60bU,
  0xfd050cfd0c082702U, 0xc02ed18250102U, 0x18f0db083af81d20U, 0xfa092df105fe440dU,
  0x18093f17f804fafaU, 0xe5e200f907121908U, 0x140604fb1d040c0bU, 0x7ed1ffafb1feafdU,
  0x1027190935352c0dU, 0xfcf9eefc04ed0324U, 0x430701fc0ffb13faU, 0x2dcfc0c0b1e411dU,
  0xfd172f06f4cc060bU, 0xec1808f4320a141aU, 0x1b1be8fe0af70309U, 0x1a082005ffdedf0bU,
  0xf0efef01eeff513U, 0x3d9f71203dde922U, 0x53f2fb02da03ea07U, 0x6fec603122602fbU,
  0x31101f08fed7f0faU, 0xfe0817f731fdeef7U, 0x180602f9f9f5faebU, 0x1dec1af9ee06fe02U,
  0xdf0ffd01f6bcf717U, 0xcfbe5fbf6ebe9ffU, 0x14fcf0f6c5c3e5dbU, 0xe5dbe807e016fed0U,
  0xe3e2e5eddc0fecdeU, 0xecd8d9ee0ae6d4f9U, 0xcf02fd01d6d3eff3U, 0x16edd2f0eff7da0cU,
  0xdae109e0dfd7dee4U, 0xd301e1d70afdefc5U, 0x6f8f7ed07edfffbU, 0xe01f19e7ecf011e7U,
  0xeafd0aecfdd706f9U, 0x6f50003ecf80c09U, 0x5e5e6eae0dc0807U, 0xf50b05fc0fd5d9fdU,
  0x11e413fd09fee3feU, 0x2001e4f5e8d80efaU, 0xfc100f12eff107e3U, 0x17f6f306ecf50cfaU,
  0xf8f0f10eede001f7U, 0x402d319fb0ae112U, 0xf13cdfce7d00c04U, 0xe6ede405070cfa0fU,
  0xe621f500f2e4dcf7U, 0x1608f8f8d7e40de7U, 0xf10c110d201c030bU, 0xf05defa1417f20bU,
  0x270bf0040d0402f6U, 0x8120ffc09080809U, 0x1313270227fc07f2U, 0x1dfd071d2812f12aU,
  0x7f71d00f404eb0aU, 0xbfe1a0a13c8fcd5U, 0xf4100e281302fcf7U, 0xe0fc17de0bf60f19U,
  0x19fcd7141814fcecU, 0xfa224bf0f8f4fe0aU, 0x22fc2eeb261ef8f6U, 0xd8f4fcf52efb32daU,
  0x1ec0e05fdf1fff7U, 0xfd07190b11f910e3U, 0xbc000f1709170b0fU, 0xecf507da1adcd2f9U,
  0x14f5b80e1a3ef8efU, 0xea2107f1d904d2f7U, 0x20002fff183102ecU, 0xdbdcc5f000073cf7U,
  0xfd1101fadb040a03U, 0x1fb0404e72c0bc4U, 0x50201170feff309U, 0x140105f34c0813f1U,
  0x271a0c0f0f1b01e8U, 0x61814031a0800fbU, 0x37031bf1fa04f902U, 0x1bea00f8fc000108U,
  0x50ff4f933f10ff9U, 0x3f70e030cf3f814U, 0x2d05071402f018dcU, 0xf00209f421195217U,
  0x191e290ef9f0fe00U, 0xec0ff4ee6bfd170cU, 0x28f3fdfa09d3ec1dU, 0x16d91eeafa13c8feU,
  0x7f20af527ebeb25U, 0xdf6fbfa06bb074fU, 0x2effd81308e51ce6U, 0xe3d8fa0fe61532f8U,
  0xe4eefb07f4f508feU, 0xfae906f23df5f702U, 0xeff71bfafddb0c02U, 0xb0cedefd2f4baf5U,
  0xede812f4ed13fb0eU, 0xf501d7eb0fbbd5f6U, 0x31f4d5050cd7ecf5U, 0x6fe12050528fbfbU,
  0x22ecfa11dc07fc07U, 0xe707ef1103f5fbU, 0xfee833f3ec0613fbU, 0xff5e8fdfcf5daf8U,
  0xde19fffefef4f0fdU, 0x9f4d9f0fc0addf1U, 0x23f0ebd9eae80004U, 0xf7f4020bd303eed6U,
  0xcce6dfd6edf5fae1U, 0xfcfdf5fe0efadee6U, 0xde040c08f003f0fcU, 0xf5e1dfe1f5e6fe07U,
  0xdff306efd9f8f0eaU, 0xd5effedefffa04ceU, 0xeb06fe0a22feff0cU, 0xf20e09eaf3f1f3efU,
  0x306f2f5ddf50a0bU, 0x501fe04f6e9ff0fU, 0xe5fc02ecf102fa15U, 0xe703f3f8def6e7efU,
  0x17ebfef916031df8U, 0x815f804eef2f20eU, 0xfb0ef11cfe0b090fU, 0x23ebf90403f7f1f7U,
  0x9fce703ef4508fdU, 0x8e4f609290ddc24U, 0x1d161a04f6e611ebU, 0x1d05ecf91630fe06U,
  0xb28ef07d60c12fcU, 0x170fe604fa0b01daU, 0xd50bf40208040bf9U, 0x15df0b090e20df04U,
  0x2c03cd03f2010e02U, 0xee071bf3f214eb17U, 0x11032b181de30ee0U, 0x2e08da05e112021dU,
  0xf2dbfc17040e0812U, 0x1106cc050e0e0ae0U, 0xf503fa150114f8f7U, 0xe0503f40c15171cU,
  0x1302f7100627f7faU, 0xee0bf80b081d14fdU, 0x1f002c06faf9f9f7U, 0xfbf305021c231508U,
  0x10612070d03010bU, 0xfd05f4ff0ffc0effU, 0xcc02f721ed04fcf9U, 0xf9f6efe303f9f118U,
  0x1a06c6fe0301fbe1U, 0xe209f0cfeef6d5f5U, 0xf7fc2ff80cfcf9f7U, 0xdfe4d0f8160cecedU,
  0xf307f808e2ed02ffU, 0xf4070df2f2f8e8baU, 0xbbf7f531fa0be703U, 0xf90901e34bf8d403U,
  0x5af7c90ef41002f0U, 0xe402e6fcf2faf5fdU, 0x28f81cfafbf3fffaU, 0xebe6d3f8f5f61af2U,
  0xecf5ff011905eafdU, 0x5f3f0fdea18ece3U, 0x44ed0a2000f609c8U, 0xf104f00a15127738U,
  0x6162912e7ddf5ffU, 0xb02ffe36af62efcU, 0x2201fdfbf3d6e60eU, 0x21e929f200fdab06U,
  0x83e03f429fcf709U, 0x5fee30109aeff4dU, 0x70a08f8f5f728ebU, 0xf7f503efe4f10bf2U,
  0xdcff021207cf04fcU, 0xfb0522f222fcdbffU, 0xfb070bfffee4f0edU, 0x26fbeef1fbf8f508U,
  0xf5051102f5eff715U, 0x7f1f5000db5fce3U, 0xeef1d9fefffe0406U, 0x2af1f9f40d06f8f9U,
  0x28f1e402ead501fbU, 0x5fcf4060307f4f1U, 0xf9f125f0f8fa0f01U, 0x8e7e1f8e9f00612U,
  0xd206eefedde01502U, 0x6f8f0fbf11ffcf1U, 0xf9f9f2dafcefe803U, 0xf6e1e4fed7f8c8d5U,
  0xd7dfcdcae4e5f7e2U, 0xdaf2f6d9dbfcf1e6U, 0xcdf7eeffeef6faefU, 0xede6d2d5eaf5e8f6U,
  0xe3d4f4fdd506f4e1U, 0xd8fadef907fcdacaU, 0x212000fa1c1e0f2dU, 0x141130070a14f800U,
  0xb27030a39400e19U, 0x416180608f5e827U, 0x82e2e3338432f13U, 0x191b021c302a4617U,
  0x31a1c17da3e25eeU, 0x212a06092f4125fbU, 0x682222212f582a4cU, 0x602133221164fe02U,
  0x2115f1133745241bU, 0x20291623470df225U, 0x26305725513e3919U, 0x512017124244472fU,
  0x1c251c17d14658f3U, 0x243f1f0f404e18f9U, 0x1d194d0c15201e24U, 0xe3e2507f1fff104U,
  0x222b07162a0f1d24U, 0x6281f3d0031f61bU, 0xc161513261e260fU, 0xa0d411206082711U,
  0x1eb0d11e8250c06U, 0x190e243a0c251ce8U, 0xfef6232107fafcf3U, 0x133d121418fedbf5U,
  0x1712f9fcf2e40c14U, 0xf6f9f238081215f6U, 0x28fed2fff6f2100fU, 0xf90e290c14e0f3faU,
  0xfe13fe032ce6f40bU, 0x2619fb0900e5fe09U, 0xe0fc130107d9fadaU, 0xe117f9efece503fbU,
  0x15000004f4eafdfeU, 0x1f2fefcf5f710e6U, 0xeefcf3f2edeee5dcU, 0xe012e1f911dbfdf2U,
  0xfbcf08ef1dd5d917U, 0xaee05f1e80adf07U, 0xe0f8dbf3fe00d9faU, 0xd1f5ecfaefe493cdU,
  0xeedcd3ee0018f0edU, 0xdce807eaf0eeeee7U, 0xd60b05fd0ffcdfc6U, 0xf6e4e0eff9f60ae9U,
  0xf1d6effce4f1f8dcU, 0x11ece3e3d50fdfbbU, 0xffefe0fa04080917U, 0x1dce8e4e2fcc4cbU,
  0xe2cab2e2021dedf2U, 0xe5f1f313fcdfdfe7U, 0xbc0012f60d1d03feU, 0xfcfde0e0de0819edU,
  0xefeeeb0cde001de4U, 0x6f7edfef625eca5U, 0xdaf5f9d402d1f512U, 0xeff6ebe9a6bd87a3U,
  0xc1b49cdffdfef6e8U, 0xbdb02f0cff8d8efU, 0xaef303f9fb10ecb2U, 0xe8f7b5e6f9fc17dbU,
  0xdfeaeee6c304ffa4U, 0xeafdf703db15d986U, 0x9eef908d9cbe601U, 0x190fe0f20307151eU,
  0xf816f1efd510f7dfU, 0x6e501fcf6f5e8e8U, 0xf115ee000cfd15U, 0x12f314fee8f809ecU,
  0xf616f6ddedf4e8f6U, 0xfdfb0cefd8110a13U, 0xf8f3ebdde6cddaebU, 0xfaf9ca05da01e6d5U,
  0xe1e1d0edd609f5e3U, 0xf8e4f8e2feecd2f4U, 0xdef3fb06ebf9eddbU, 0x16e9f1e8de15f015U,
  0xe4de0bddc5ebe5f3U, 0xf3d5d9edf602c1e0U, 0x1fd4723f81bfefaU, 0xf83e040906ea02feU,
  0x41a190804f20407U, 0x1f030713f5040f00U, 0xfecf409eaf7f809U, 0xeffe080a26fe030cU,
  0xd0ef803f7f1ef02U, 0x201c2217f4ed1506U, 0x3e0c21e8202d17feU, 0x222f071ef937f216U,
  0xff200a07210b2b0cU, 0x2afd1dfc26f91df1U, 0xf21e1d181418131bU, 0x280022002f2c1413U,
  0x27db121a081d1e16U, 0x82331ff351c0103U, 0xfb101701283f0215U, 0x11031dff1c00e9e9U,
  0xfd19f4112e15fef7U, 0xf82b231ffd180ff6U, 0x1a1a140429142023U, 0xf417211914063315U,
  0xeefef90612151cfdU, 0x1affe516041b0affU, 0xfc0d091f0d240307U, 0x10f428081ef20314U,
  0x1fd9fef8290deb0bU, 0xf00def4416f7f6ffU, 0x250c09f21d0409f4U, 0xfef8fa010d112805U,
  0xf92cfdef0b0c2019U, 0xfd1ef5ee160b0519U, 0xda06f30cf8d3ff04U, 0xc71d28e8efeacccdU,
  0x12fec9e902e70aefU, 0xfcfff4e2f2f7d512U, 0xddfd01e6fa0f08daU, 0xd7ffde1befdef5ffU,
  0x7fc03e8e63af607U, 0xf2eb1eecf50efbb0U, 0xe6f816da0cecdfeaU, 0x10feff2d1e493a9U,
  0xdc04a7e003f001eaU, 0xf8090308f108e0fcU, 0xd91409070006f6d9U, 0x4eeebfc0de8fc0bU,
  0xf0e90304c211eeb6U, 0x708091ae9f6fbc8U, 0xd60c1af72833f515U, 0x50112f1c6dcd1ecU,
  0xe926e1ee2b0cf8faU, 0x140f2f20dffcf501U, 0xee1d19f332110502U, 0xef041c020d0732fcU,
  0xf1f50707fbf11ff8U, 0xff0d1d17f9240bc9U, 0xf30a0bfd1508112eU, 0x14f416f8eae0d7efU,
  0xe4f7e9f30c25e6ebU, 0x70e0f29effbedeeU, 0xef171e061428fa08U, 0xff3f01af7113102U,
  0x3800ef08052df9U, 0xfef12107f12b10e0U, 0x1f17f903111d012fU, 0x32df15fde71d00eaU,
  0x10d8d60d1d0e0a13U, 0xf8010d063203ddf1U, 0x91728f90d2710e5U, 0x140f0409fd0e290bU,
  0xdf0df119ed1a1fe9U, 0x90710fdf426f1f7U, 0xd404f6fe20f4df0cU, 0x1de021fdf705e506U,
  0xf6efe4060912fdfcU, 0xf808050ac9f9db04U, 0xfafa12010b0d0fe4U, 0x5fbe3eff409fe08U,
  0xe6030202d11013e9U, 0x6fdeafe0b13e3f8U, 0x404ed32fc25f644U, 0x210801ff0cfe1c01U,
  0x16102201ee3ff40cU, 0xeef7db2908e90609U, 0x19092715fe02fd01U, 0x1313fbf720232d17U,
  0xd1b0cf002081805U, 0xaf5f8f3027ff02dU, 0x46f504e601fffc02U, 0x120dfd11f72028edU,
  0xf30322fc0e350ef9U, 0x10faf3f4f50216f7U, 0xe70021fe1410f8feU, 0xcf605f40af71a17U,
  0x9dd1703060b0407U, 0xf20c16ef340f010bU, 0xa0e020f03111c11U, 0xf6281c1011040614U,
  0x5190a0b091b03fdU, 0x24211609f70511fdU, 0xaf7061b16201633U, 0xe71317181bfa240fU,
  0x10de1d1507080cf4U, 0xea11102905f50c1dU, 0xf40efefcf90405U, 0xc1017e90ddb3815U,
  0x802faff030004f4U, 0xfa11100bd9190005U, 0xd1413f50b0a040fU, 0xf603110c07c80e01U,
  0xeef302f30e08f1U, 0x4fc1714e810071dU, 0xddf912f9ddd6f3e2U, 0xeb04e203d3edece0U,
  0xf707e104effbf7f6U, 0x1009fcdeeef0e00dU, 0xd302ee0007fefb06U, 0xecf6f1030fcff0f8U,
  0xf8fef4e8c6e5defcU, 0xf9ee07e5dce803d4U, 0xf00b0edf2515f70cU, 0xf0e807ffd3e3a5bcU,
  0xded9a3f6ffef02f2U, 0xe7f8fcfaeef7e1f5U, 0xc40afbeb0a0dfddaU, 0xf0f8daebf7e416f6U,
  0xeee2ec0bcdf3ebc4U, 0x919ede5e316e0beU, 0x3f2edf01c131214U, 0xf31224f3f1eee0f4U,
  0xe0f7fcf41f1dfbf6U, 0x70c1032fef10af5U, 0xedff29fb271e0410U, 0xece9f4f315fc070dU,
  0xf1240a00091110f1U, 0x190b1901f90e20dfU, 0x10ff04f31b0e0430U, 0x1ff050403ecec0bU,
  0xc03f60c201e070bU, 0x1a1d240f1afdec24U, 0x80d13141722150eU, 0x4ff1de8263912U,
  0xf6f91011fa382d01U, 0x30b180cec3d0fe9U, 0x1a1205210f1ee02bU, 0x3e1917030c080a12U,
  0xef9f9101c160311U, 0xfa26012afe18d8f7U, 0x1c1e18030e211412U, 0x61106f8e6110f0eU,
  0xf94ef11801131ff9U, 0x309df071e131216U, 0xf61e070c3003e814U, 0xd9ea201802e5fbffU,
  0x7ea04160c0bf5f0U, 0x19ff0f0117f8f600U, 0xff0d0cfa11140bf6U, 0xef418f90c1910e4U,
  0xf9ff06f80b0a1306U, 0xfb0609022608e513U, 0x26ff371c2f4dfe2dU, 0x2e141010ec094715U,
  0x42446065135041aU, 0x1e3d251e3f272c09U, 0x1e3840f63b470d2cU, 0x310a421144363e20U,
  0xd36fdfe191e25faU, 0x171b3c0216331149U, 0x290a17e71906ff2aU, 0xed18270dfb3035f0U,
  0xe8201c0e090b06ffU, 0x15241c12de081110U, 0xe2e61aea26241310U, 0x9f62529f6ec2308U,
  0x1cd606fa0800290cU, 0xfefe2df517fe2626U, 0x911010708d909feU, 0x9fa060e0e060f0dU,
  0x1e110e15f01404f9U, 0xbea0d0e0807ebfeU, 0x1df11f0afd170920U, 0x20e01fc0bfafd09U,
  0xc091305e40af2ffU, 0x70b1cf00810fcf4U, 0xec010604fbee0422U, 0xe6090fdbefd83809U,
  0xd305e50102160306U, 0xf30c180ea7ffe809U, 0xebe323f1fd22fe0bU, 0xdb01131302cd37eeU,
  0xdecfd00fc0811f0U, 0x906fd05d7430b1dU, 0xc9f2cbebd3bbf40bU, 0xcff3f1e7ceafbdd0U,
  0xdde3b0f0da22f2d6U, 0xd7f1e8e0b9f9de03U, 0xc0e512effb1800dcU, 0xc0eae7e6fdc71befU,
  0xfae8f1eec4f8ef04U, 0xf8f5d8d4c631e4b1U, 0xedf2eed6eefd0df5U, 0xc7f30d06beda94c0U,
  0xd9dfb705f80909e6U, 0xebf009d1e6ffe9feU, 0xc1ea1e01012ce5d0U, 0xe6f1d5f3f6fbfce8U,
  0x1c9f2ffd906f5d9U, 0x70b0df2d1ead0c6U, 0x9f31dfc29f8050dU, 0xf4121017fefc111aU,
  0xec0bf60307e610f6U, 0x110a0c12d6f1f8ffU, 0xf9f2ff03f80b0413U, 0xede90cf8eef3ff17U,
  0x9f1100ced04040bU, 0x1c063019eacefcf1U, 0xf712241c1bfd28ffU, 0xe60402f9130cf427U,
  0x2306fb10f1d7181aU, 0x50b002b01fed611U, 0x1406ee16e4e6f103U, 0xfe120314ff05f908U,
  0xe60f1520fe02fe10U, 0xe05e00c0fef2f0fU, 0x209081803fbfd09U, 0xfc0108fc17020810U,
  0x1e15081c2cfb0610U, 0x1a0e14142d18ee0dU, 0x14120d11060a1118U, 0x1c0cfb0cfd2330f5U,
  0xe90b0ffa03fa0a15U, 0xa0e210816e21e14U, 0x120b0ff80420050aU, 0xeb0d23fa1dfb010cU,
  0x10fa110821e6edf3U, 0xc170a0716f31a13U, 0x1f17f60a0c1deef4U, 0x14dc0a1315092405U,
  0xf20512fc29fe1409U, 0x12fd2a0402f50516U, 0x1a07011510280827U, 0x20121823001b2b06U,
  0x100a1dfc25490718U, 0xfe0a251f29073208U, 0x47f24205182a0e0bU, 0x1913320134422c18U,
  0x181e15f1422b1a05U, 0x120518fc0e0a0127U, 0xb0e0010041c1310U, 0x21721151f182408U,
  0x80a1705e83d080cU, 0x3010a0ff21b19U, 0x6f41e062014fe0bU, 0xf6060e1eef0f1811U,
  0xf1904fe0e05160cU, 0x5fe2dfb1d2b1325U, 0xfc0b12fb14d91aedU, 0x121e20153f1925fcU,
  0x261c1d10e70218ffU, 0xa17e7130c010b13U, 0xf0b0b12fb1df822U, 0xb0d290721f11e26U,
  0x121829122011ef02U, 0xc06210e07190afbU, 0xe8051006f2011728U, 0xc011feaffe21704U,
  0xd608f4061d2104feU, 0xf90a0c03d201f711U, 0xfcff1c04171f070dU, 0x6f018fb06f643f9U,
  0x11eaf002eb0c10fdU, 0x1202f5f8d427f709U, 0xaefc0ff206eb0917U, 0xdd0ff6e7fab8f1f1U,
  0xd8ffd3040f0c0ee8U, 0xe9e502efbbf3eb04U, 0xdef8fffffb0f0622U, 0xbff6f7fa13c50e02U,
  0xdceeb09df19ff13U, 0x11715f3b30b04e6U, 0x4070ed6e5f009e9U, 0xef13f7f9def2e8e2U,
  0xe51edf00fdcd06e1U, 0x9fbf5d1cffa0c05U, 0xdce6de03e5f8eb1eU, 0xd8fffc0c00c1caf1U,
  0xbc80603eaddedeeU, 0x81706f9d4ce06e3U, 0xf201061cf8eff9e9U, 0xd813ff17071f17ebU,
  0xf712fb19ecdc0004U, 0x9f4e8ee03020100U, 0xcf5e5fadfe6060aU, 0xf0f51ff02003dd10U,
  0x10b0080ffce1e8fbU, 0x121bf60af0d9e20fU, 0xd9fb1f2f12f227f1U, 0xf7f61f0c15030d17U,
  0x25050320ebf20e23U, 0xfe7fa1507fdfb14U, 0x22e5ec04ffeffd2fU, 0xdb2507f71028f60aU,
  0x17ee0f0819fdf716U, 0x1bfd0207ec3120U, 0xfafe221af5cb21e7U, 0xf518fd031ed83325U,
  0x2031722f9edee0cU, 0x23e9f4082501140fU, 0x1becf500e2fbf417U, 0xf0ee08180dcbfae8U,
  0xdf305f80fe3df15U, 0x14010f0313e10c1eU, 0x5fc1212dee600d4U, 0xe005d2f803231e05U,
  0xf100701ef18effeU, 0x1be4fbce0afb09faU, 0x400f4fedff6ecf1U, 0x1ee1131904f0edf2U,
  0xdbdfcfe1fecc707U, 0x70bff0b0cfc0819U, 0xb080edd20eb00eaU, 0x9011313ee27fbU,
  0xf3190f0ecfbef2fdU, 0x4e9f719eb142bfdU, 0x26ded7f1e3bd050fU, 0xf1051212fbebc0e3U,
  0x18f9260429e1d9f5U, 0xf7f92107e5ab061fU, 0x1b07f7edeaee08deU, 0xff09df0d21171115U,
  0x31a010adfebfe10U, 0xf5ece70512f00603U, 0x2f6d6fdecd7fe0dU, 0x40c17140ee3e3f7U,
  0x1419f60129f8e50dU, 0xfc0d2ff912ce002dU, 0x19f50405e8f006e2U, 0xf8190b0a181326ffU,
  0x1b11170a06eb0b0aU, 0x10f7db2c06011b06U, 0x5e3f709e2ee1018U, 0x14f3060f30f6f816U,
  0x12201af62603df08U, 0x81a0df70ed5f026U, 0xd0526d102250018U, 0x1215060005f40ff5U,
  0xd72304fe341d0c02U, 0x1df8f2f7e3020003U, 0xfafc1a0a0f151cf8U, 0xdcf80703190405fdU,
  0xdce050d00210d16U, 0xfc141dfbff01090dU, 0xb6ff0a05e4170a13U, 0xe110e90022d800fdU,
  0xc02e90f2afd0eeeU, 0x11b06ebdaf9f203U, 0xbfffdff14f30a15U, 0xbefa051a001a16f1U,
  0xddf9fc160c1812U, 0xfa09ecf3bd240a14U, 0x29f6f1f8c2d0fa22U, 0xb0def01e7fe0ef1U,
  0xd801090eeb260df4U, 0xdde7b8c9fff80e05U, 0xfe070e05ddf7f701U, 0x1ef00c10e83bf40dU,
  0x18bfeef006f71506U, 0xa1ec6d8ff2ffb2eU, 0xfffffa051004f0ffU, 0xbf0601f80e20fafaU,
  0x290d1e1401180205U, 0xf5e80fd81cf82705U, 0x14150e12fb00f6e2U, 0x2d001bf706460809U,
  0x589020d3618120fU, 0x290ef60505ffed25U, 0x380c14180b031bfcU, 0xf080e0023013634U,
  0xe203c03fd0ffeffU, 0xf5e70d1c2901120dU, 0x2c0906fc030e0933U, 0x2f1024fd2315fcf5U,
  0x281104fe240ffe25U, 0x150b1bfc1ef92145U, 0x15fe00f121f01919U, 0xf20116ec07fa14f5U,
  0xee080612fd0e0702U, 0xeb0001ff240ef614U, 0xd0827f8201d05ffU, 0x1af0090e11011401U,
  0xfcf8fe06092c1df7U, 0x8250bfb07130017U, 0x120a191cfb0318U, 0xfc0b29fa1b261717U,
  0x61510fe15170e00U, 0x240a220819110406U, 0x240c2b0a15261b04U, 0x16050d141b0a17feU,
  0xff0cfd290120260cU, 0xb1f232a0e1d121bU, 0xfaf3d1e6d6d8e9ccU, 0xeaeebe0027f20200U,
  0x8d10eebaecde0f5U, 0xded8de1be8d6fbe0U, 0x34debbd8bfaeeff9U, 0xf7fef0fcdcd6b8dcU,
  0xe10fe2fe1dbbcd08U, 0xf4edcfeadbb6f001U, 0x5fbe5cdfacbe6c4U, 0x2f3e70c200412f3U,
  0xf9f017f6bdc6f3f8U, 0xdccfcb0423fc0deaU, 0xf6e7c2dfd6b2f609U, 0xecf7eae506aaf5U,
  0xf611f6ef34dfc002U, 0xfff400f1198af022U, 0x3ef90bdc06e20ae2U, 0x513f51d24102c0eU,
  0xee190a07ccc9020dU, 0x19ecdb2c170d1202U, 0xebe8d9fbf4c8fe02U, 0xcfa26152507ca25U,
  0x1f290af517e0d900U, 0xfe0b450319c1f712U, 0x1dfe1e131fff04efU, 0xd6260d0e13010feeU,
  0xfe1af1080cc8fcf6U, 0x1811f1f2dd080002U, 0xfe0905020a010cfbU, 0xdbf6160c1fcac7feU,
  0x6daff1aef090111U, 0x221e0df3c705feU, 0xf4f6f60f1a150924U, 0x313fa1113ffceebU,
  0xfe06e9f70f02f7f2U, 0x13011708000502faU, 0xfd19210f0a2a08f4U, 0xecf8fedc190a2002U,
  0xcf1f4fce5240604U, 0x10802f4ef20f4fcU, 0x24fa0908163e0547U, 0x15fe1f16380edd27U,
  0x136fbff360910f0U, 0x2b1d1401fd030118U, 0x2209280b1f331d01U, 0x220b120b25370f0aU,
  0x160503110e2e2c18U, 0x9262d0431051104U, 0x200408280b230906U, 0x4222110b4f14233aU,
  0x222117021509fce7U, 0xdf8031b13112009U, 0x3f17021a0b001226U, 0x1311160e0e26fd09U,
  0xb6610033bf70744U, 0x2214020f1aee2739U, 0x905ff1530f904f0U, 0xe41a0cf310ee521cU,
  0xdc293d12ead7fcf2U, 0x270208da2df30f19U, 0x1709f310f1f8eb12U, 0x2002d100429f6f6U,
  0x14e316124112f830U, 0xffc301706d21243U, 0x1b080904fe0c00daU, 0xd27fff9300b1929U,
  0x1c0d2c0adebc1cfbU, 0xf007f8201d101bfeU, 0x3f08d3ffead51909U, 0x11eb2a150ce3d0fbU,
  0x91b11ff2debe50eU, 0x315f40108c00838U, 0x4f111f1bfde7f9c3U, 0xb91ae1f92528422dU,
  0x60d4315d1cffcf4U, 0xf6daefbd3af92e00U, 0x2af8dc03c6d4f10fU, 0x1f0633fff7cab82cU,
  0x8cd04ff1ed3d41bU, 0xff08f3fefad4fa46U, 0xef03f4f4e6f8e7e9U, 0x1af2faef02faede9U,
  0x7dde3f2d91ee9f8U, 0xe2cce1e215d7e6e8U, 0xfdf5ec08dfe3f3e9U, 0x1601ddebda09e609U,
  0xe03403f4faf0f00fU, 0xebfbe1f101fcfddfU, 0xe5f1e6edefeb00ddU, 0x2af01ce015faefdcU,
  0x1d6e7ead4e9ececU, 0xdbe60af61ff8cdfaU, 0xf3f4e9ddf4d707daU, 0x10f4d3f2cbfcc8f6U,
  0xe30af3fa15f3df10U, 0xedfbeaec18cffbe9U, 0x320304e7f9e106c7U, 0x261ce31a172d16f9U,
  0x1401fbfac9c8f4ebU, 0xe6ec03281d011a0bU, 0xdaf2cbffe0b60802U, 0xeea17fdd406a61dU,
  0x111ffb020cf1d214U, 0xfc01fa011d94fc08U, 0x3c0d140317e208dfU, 0xe220e10e09141afaU,
  0x1c0c0801d1cb0d02U, 0x16fb0502def207ffU, 0x5fde913e3d0060cU, 0xd1f93602fee4c1feU,
  0xbeb0afde80cec14U, 0xfd08120306d70212U, 0xeefbfc1205150e21U, 0x2a15020b30fffefaU,
  0x1004ec0b090b03f2U, 0xfef0170b36090b0eU, 0xafe17fcfc1d030cU, 0xeef912fa2416fd01U,
  0xa1102000312010bU, 0x7111603e822f2edU, 0xbf803311ff9022dU, 0xfa161e08440b0412U,
  0x2905f80df75003eeU, 0x1103080414120907U, 0x1ef13ff612231709U, 0x191b1b1124122afbU,
  0x210aff0224141817U, 0x708dc09163afe13U, 0x310efd41fa050712U, 0x1f101bf3331f2d3fU,
  0x1f112b05daf9fefeU, 0x1fce521210911f0U, 0x2b031700fd170607U, 0x111320fefd01d504U,
  0x348fff51b301b2cU, 0x1b10e6dc14001630U, 0x260900f5efe0fcc7U, 0x417d0021e0a303aU,
  0x7092c0cdaae0102U, 0x10fa0df608020409U, 0x33fbcb01fdaffcffU, 0xfbfc25edf7bcbef0U,
  0xf300f9f31bd2bb14U, 0xdf3f3eefbb80240U, 0x2edef110a8a5f0c8U, 0xe912bb0411f52b14U,
  0x13ef1d03b5bdd0e6U, 0xefe5d5ea2cf3eed8U, 0x5f9d6ffc7aaefe9U, 0xfde614f2d5b9a706U,
  0xdbe303ee0acaad0cU, 0xf5f4e6e905c1f119U, 0x2505d8fbd7a3d8c3U, 0xd4e2edf4f32814f9U,
  0xdceb050dbdd4f5e1U, 0xe6c4dce61ce7e8f6U, 0xeff0d8f4cac9e105U, 0x21eb06e6e901aa15U,
  0xf1e0fceee4d7c80cU, 0xebfeda0200ccf1fdU, 0xe5faf704e8e9fce5U, 0xfffeea1509f0e2f3U,
  0x3f9e6fbe2b5e600U, 0x13f3f0f7e7ffe7e6U, 0xf5ddc9f5e0ccf2ffU, 0xf8f6f5e8fad5d017U,
  0xe529ffe3dcc205U, 0xf0f40ff6ebbe24dbU, 0xf8f0e811e3daeed2U, 0x1301daf00beae1f5U,
  0x6eae5f6e29cf6fbU, 0xf7d7f4f1ee02e6eeU, 0xe3ecb5edc6b1f0faU, 0xf4eff5eee9eaeef9U,
  0xfd1cf9f7d3e4dd19U, 0xf30524f8f9f810f0U, 0x1ef8fb070eebfef1U, 0x19f9df05f82114e4U,
  0x2909f7f3f9f6fff9U, 0xf9e7053c13f80512U, 0xe6f713f8f8d5fff5U, 0x1bf513f9db01ef1bU,
  0xf90605ed03000105U, 0x6f816f61e0ff30aU, 0x4cfc14fe1cf4fc0aU, 0xeb1f2117052d2fe0U,
  0xe193005eb140a01U, 0x1bec120ddae9301bU, 0x4f92017ed26070dU, 0xee02330d16dffe06U,
  0x22e222f9180bf812U, 0xf7092e0c2303fd26U, 0xf07221501000e0aU, 0x272c010631fd1e01U,
  0xd31e80a070506fcU, 0x30309160d0f02fcU, 0x12001d020e1bfd03U, 0x6fd2bf9320ae805U,
  0x191f0a07060e0709U, 0xf4082809f1e6060cU, 0xe0026292c261c18U, 0x1521391232110e11U,
  0x34240f131d0a07f7U, 0x3122240632031801U, 0x20022a1113370922U, 0x111c25134f16210eU,
  0x1d000806202b0b13U, 0x16062f11042c0f23U, 0x230a1149f2151627U, 0x2e1536fe41fb3129U,
  0x2d212c051e160203U, 0xff1bf63d490a0ffaU, 0x35fe1b0103240b2bU, 0x4141c0905faf7ffU,
  0xc6f02ff27182828U, 0x1a05fa0a05292723U, 0x26fcf80afbdbf0ebU, 0x2e0f0f02170c021aU,
  0xd0e1201e51be7f0U, 0xfedadc0c26f9fdf9U, 0x12f20afefd090303U, 0xd031deffe11d8feU,
  0xe9f702f506100703U, 0x6f1e0fafcf80e0fU, 0x25dfecf004d804ecU, 0x2ed17ed03f219ffU,
  0xe5ed0a08e20ee8e2U, 0xfde3f40319e2fce9U, 0x1f102fd030907ecU, 0x15def3f6e7f9dceeU,
  0xe9daf6ecfe07f100U, 0xfce900f006fdfc08U, 0x1df9f8ee0124f2ffU, 0x15f61202e730f2eeU,
  0xcd00f3e8fdfe04e7U, 0xf700fe0805eee408U, 0xeffbf4fc15fcdaffU, 0x30f714e4f10ce30bU,
  0xe7f10cf2de070b03U, 0xfa03080605fd0adeU, 0xd4e5c9fbd6c901f4U, 0xb6dedf0006cbe702U,
  0x8ddd1f1f624dfffU, 0xbae4f01bb1e2dee1U, 0xf1b4f3e4d0dd00efU, 0xb80dd2e9b7a71dc6U,
  0xe5f5fcfcf8f4e3f7U, 0xd7e1c2e1cd13efd6U, 0xd5f3d104ccd5f9f5U, 0x3d9d7e703ddc6eeU,
  0xc8c3ece137ede9U, 0xfad8e1e9fffbdfe8U, 0xd40209f5d1e6f5edU, 0x2f7c4edfa0df3efU,
  0xdf2de2d7d3f4fe06U, 0xf8eed3d9de1fe3d4U, 0xf3faf209f2eaf712U, 0x14d91c000913d5e3U,
  0x1dd9d4e0f21dfae7U, 0xf2e80a110a03d5fbU, 0xb3fb1dfd0016fcc9U, 0x37f1e401e9021a18U,
  0xf0eee2e6d8020301U, 0xfefd0ae4121df0d7U, 0x1707f4fa120408feU, 0xcf70b211528eee9U,
  0x190ae5fdfb010704U, 0x6fc04250707040eU, 0xe4fc2b06ff200e0dU, 0x1efaf8fee8e01120U,
  0xfcf81c03ec02fbfdU, 0x60a13f42c1203f6U, 0x1f03ff1f14151821U, 0x19191c0d3425f914U,
  0x3806efff17180c06U, 0x4f9100b190eec01U, 0x225111f0f1403U, 0x11f1160920102a0aU,
  0xc0207faec0b160cU, 0x100119f61603fb19U, 0x2e09f6321dfc2012U, 0x1d26260f4f241119U,
  0x51092719131f0ff4U, 0x240024004a032510U, 0x4efa210dfe19081aU, 0x1f0d21fd2d061612U,
  0x1b07080733131017U, 0x13062a071417193dU, 0x2d080659ee140a16U, 0x1b101c052e024725U,
  0x2725290d1d180a0bU, 0xfb06113578fb17f4U, 0x140528ff101b1322U, 0x270d150608f2060fU,
  0x949f3070f0a0e30U, 0x1bff0ef90b1d1c2fU, 0x47031e09121fe52aU, 0x1b0427fc0a1c06fdU,
  0xf9f7f1ef0438f7f2U, 0xe0df2f50e02fff8U, 0xf2042203273306fbU, 0x3afd05eedc130f04U,
  0xf7e5fa0ef91815feU, 0x9f50c010812fdfaU, 0xf9f1f2ee32fe012cU, 0x17f612f0e00cf0faU,
  0xdce3daef0831f8efU, 0xe3070315fbefd0f5U, 0xdc042bf22734f5ddU, 0x5dae8fada0a1017U,
  0xd0edf4fee90934e0U, 0xfff5d60b0e1ed7deU, 0x900e4e20509fd1aU, 0x23f420f6e40dd3ddU,
  0xdae5d5ee01270fe6U, 0xeefd1a11e1f8dc0fU, 0xd5f91a051130e502U, 0x32f0eee3e0231d0aU,
  0xea0a0df5cf2a16cfU, 0xf2fe0e050c1a08daU, 0xf2e8070ef1e4f1faU, 0xf4fc00e8e002de0bU,
  0xe0dea01f5c9f6e9U, 0xf5f9f402c008eefeU, 0xdb06e5e1ead306fdU, 0xeaec0415eacdd4faU,
  0xf0d405f20511f8e4U, 0xfdea03e7deca0fe0U, 0xf40f0a07e806fdf2U, 0xe9fdefe6def4f0feU,
  0xfaf3e30e0beefbeaU, 0xf20205240007f7feU, 0xc3f60c3be316fbf3U, 0xe5e9ef17f8edf20bU,
  0xe816fd06f2fe09f0U, 0x4f8f90febed0cdfU, 0xe109dc0bfff3fceeU, 0x8dfad80bbddbe8e3U,
  0xe5e4f502e8beebf6U, 0xe6e605fec3e1e6fdU, 0xe1f3e9090001d900U, 0xc3f4da11f8a0c7fcU,
  0xfe88f6edfc0be4e7U, 0xfedb0cf6f6d8decfU, 0xaef9cdd21ac4e6deU, 0xb5dffbf6fdafd108U,
  0xdf2d806b7e400f6U, 0xe5f6f0e9e0e7e7efU, 0xdef6c0a0d8c7f90bU, 0xcfd90a10c2ccebf4U,
  0xe7d4f3ffece4d9f1U, 0xfafde8dfa8e0ebe4U, 0xfafa050dcad2f9e7U, 0xdd1acb09d3c3f7daU,
  0xfef5d6dfe2e7fbe7U, 0xf7f2e833022b0103U, 0xd5f9dcf2adaecff0U, 0x6f30bfcd1e3ca0aU,
  0x215e40afdbbc6daU, 0xeaf215bdebeed9U, 0xfc0646eee8e9f7caU, 0xfc31c9f4cc06be18U,
  0x232d8ffd017f104U, 0xc2daf9be350105f3U, 0xd80de10eb7cfd0f5U, 0x32020beffdf9ea0eU,
  0x5c623ef14cfb4e9U, 0x61216101d0520efU, 0xff01d7ee231e0b07U, 0x10e2d3f2d50fe3faU,
  0xf9ecdb0ddd17f50eU, 0xfb0fe8d020fbf5e8U, 0xd22a1a16ccf6c2e5U, 0x24f21be8d93614f6U,
  0x100eb0abedbf6U, 0xfe0108f806fd12e5U, 0x340dd8b733f5ec24U, 0x340ccd01e32bb7bdU,
  0xe8ee010efd4c09dfU, 0xad5edd55f23fde9U, 0xc71a52f91745c4bfU, 0x13f0fb0104631f10U,
  0xf009fcdbf52e1fcbU, 0x906091f3e39e3a2U, 0xe1150e1757141925U, 0x133847faf31bc8eaU,
  0xfe12d2fc2945050fU, 0x18123afcd1fce536U, 0xf9014511404912d7U, 0x37feec08fa485019U,
  0x16200aff1a454fe9U, 0x2f12232f3d4fded4U, 0xe5150131232c2066U, 0x33fb2af61dfdf717U,
  0xf1ae504f45c0beaU, 0xf61a0d33e30a0707U, 0x3bfd6c29456a340dU, 0xafbec051c476e03U,
  0x159050bff4c3df1U, 0x170a1614df6a35faU, 0xebf9f30beeb710ccU, 0xd2f3ef04f9d5fffeU,
  0xfce6ebefeffcfcf6U, 0xf0ffeaf7eafcea08U, 0xe8f9bcc0f3d80ef5U, 0xf5fde11bd8e2d2edU,
